{
  "version": "1.0",
  "truncation": null,
  "padding": null,
  "added_tokens": [
    {
      "id": 0,
      "content": "[PAD]",
      "single_word": false,
      "lstrip": false,
      "rstrip": false,
      "normalized": false,
      "special": true
    },
    {
      "id": 1,
      "content": "[UNK]",
      "single_word": false,
      "lstrip": false,
      "rstrip": false,
      "normalized": false,
      "special": true
    },
    {
      "id": 2,
      "content": "[SOS]",
      "single_word": false,
      "lstrip": false,
      "rstrip": false,
      "normalized": false,
      "special": true
    },
    {
      "id": 3,
      "content": "[EOS]",
      "single_word": false,
      "lstrip": false,
      "rstrip": false,
      "normalized": false,
      "special": true
    },
    {
      "id": 4,
      "content": ".",
      "single_word": false,
      "lstrip": false,
      "rstrip": false,
      "normalized": false,
      "special": true
    },
    {
      "id": 5,
      "content": ",",
      "single_word": false,
      "lstrip": false,
      "rstrip": false,
      "normalized": false,
      "special": true
    },
    {
      "id": 6,
      "content": "!",
      "single_word": false,
      "lstrip": false,
      "rstrip": false,
      "normalized": false,
      "special": true
    },
    {
      "id": 7,
      "content": "?",
      "single_word": false,
      "lstrip": false,
      "rstrip": false,
      "normalized": false,
      "special": true
    },
    {
      "id": 8,
      "content": ";",
      "single_word": false,
      "lstrip": false,
      "rstrip": false,
      "normalized": false,
      "special": true
    },
    {
      "id": 9,
      "content": ":",
      "single_word": false,
      "lstrip": false,
      "rstrip": false,
      "normalized": false,
      "special": true
    }
  ],
  "normalizer": null,
  "pre_tokenizer": {
    "type": "Whitespace"
  },
  "post_processor": null,
  "decoder": null,
  "model": {
    "type": "WordPiece",
    "unk_token": "[UNK]",
    "continuing_subword_prefix": "##",
    "max_input_chars_per_word": 100,
    "vocab": {
      "[PAD]": 0,
      "[UNK]": 1,
      "[SOS]": 2,
      "[EOS]": 3,
      ".": 4,
      ",": 5,
      "!": 6,
      "?": 7,
      ";": 8,
      ":": 9,
      "\"": 10,
      "#": 11,
      "$": 12,
      "%": 13,
      "&": 14,
      "'": 15,
      "(": 16,
      ")": 17,
      "*": 18,
      "+": 19,
      "-": 20,
      "/": 21,
      "0": 22,
      "1": 23,
      "2": 24,
      "3": 25,
      "4": 26,
      "5": 27,
      "6": 28,
      "7": 29,
      "8": 30,
      "9": 31,
      "<": 32,
      "=": 33,
      ">": 34,
      "@": 35,
      "A": 36,
      "B": 37,
      "C": 38,
      "D": 39,
      "E": 40,
      "F": 41,
      "G": 42,
      "H": 43,
      "I": 44,
      "J": 45,
      "K": 46,
      "L": 47,
      "M": 48,
      "N": 49,
      "O": 50,
      "P": 51,
      "Q": 52,
      "R": 53,
      "S": 54,
      "T": 55,
      "U": 56,
      "V": 57,
      "W": 58,
      "X": 59,
      "Y": 60,
      "Z": 61,
      "[": 62,
      "\\": 63,
      "]": 64,
      "^": 65,
      "_": 66,
      "`": 67,
      "a": 68,
      "b": 69,
      "c": 70,
      "d": 71,
      "e": 72,
      "f": 73,
      "g": 74,
      "h": 75,
      "i": 76,
      "j": 77,
      "k": 78,
      "l": 79,
      "m": 80,
      "n": 81,
      "o": 82,
      "p": 83,
      "q": 84,
      "r": 85,
      "s": 86,
      "t": 87,
      "u": 88,
      "v": 89,
      "w": 90,
      "x": 91,
      "y": 92,
      "z": 93,
      "{": 94,
      "|": 95,
      "}": 96,
      "~": 97,
      "。": 98,
      "，": 99,
      "：": 100,
      "？": 101,
      "##r": 102,
      "##a": 103,
      "##n": 104,
      "##k": 105,
      "##f": 106,
      "##u": 107,
      "##t": 108,
      "##i": 109,
      "##l": 110,
      "##o": 111,
      "##c": 112,
      "##s": 113,
      "##m": 114,
      "##I": 115,
      "##F": 116,
      "##T": 117,
      "##g": 118,
      "##h": 119,
      "##N": 120,
      "##G": 121,
      "##E": 122,
      "##R": 123,
      "##d": 124,
      "##e": 125,
      "##y": 126,
      "##b": 127,
      "##w": 128,
      "##.": 129,
      "##\"": 130,
      "##9": 131,
      "##7": 132,
      "##D": 133,
      "##A": 134,
      "##v": 135,
      "##p": 136,
      "##L": 137,
      "##3": 138,
      "##x": 139,
      "##B": 140,
      "##q": 141,
      "##z": 142,
      "##Y": 143,
      "##C": 144,
      "##O": 145,
      "##U": 146,
      "##S": 147,
      "##0": 148,
      "##5": 149,
      "##2": 150,
      "##1": 151,
      "##P": 152,
      "##6": 153,
      "##j": 154,
      "##K": 155,
      "##W": 156,
      "##M": 157,
      "##~": 158,
      "##V": 159,
      "##4": 160,
      "##/": 161,
      "##H": 162,
      "##_": 163,
      "##J": 164,
      "##X": 165,
      "##8": 166,
      "##Z": 167,
      "##Q": 168,
      "##?": 169,
      "##,": 170,
      "##-": 171,
      "##}": 172,
      "##{": 173,
      "##'": 174,
      "##]": 175,
      "##=": 176,
      "##^": 177,
      "##:": 178,
      "##\\": 179,
      "##)": 180,
      "##!": 181,
      "##+": 182,
      "###": 183,
      "##[": 184,
      "##%": 185,
      "##(": 186,
      "##$": 187,
      "##`": 188,
      "##&": 189,
      "##*": 190,
      "##;": 191,
      "##<": 192,
      "##>": 193,
      "##@": 194,
      "##|": 195,
      "th": 196,
      "##er": 197,
      "the": 198,
      "##in": 199,
      "##at": 200,
      "##ou": 201,
      "##nd": 202,
      "##on": 203,
      "##es": 204,
      "##en": 205,
      "##or": 206,
      "##ing": 207,
      "to": 208,
      "##ed": 209,
      "##an": 210,
      "##ar": 211,
      "of": 212,
      "##ll": 213,
      "in": 214,
      "##it": 215,
      "##is": 216,
      "and": 217,
      "##om": 218,
      "##as": 219,
      "you": 220,
      "##re": 221,
      "##ic": 222,
      "##al": 223,
      "##le": 224,
      "that": 225,
      "be": 226,
      "##ow": 227,
      "##ion": 228,
      "##ve": 229,
      "##ut": 230,
      "##et": 231,
      "##ot": 232,
      "re": 233,
      "##ent": 234,
      "wh": 235,
      "##st": 236,
      "is": 237,
      "it": 238,
      "##se": 239,
      "Th": 240,
      "##ere": 241,
      "on": 242,
      "ha": 243,
      "##ld": 244,
      "##ct": 245,
      "we": 246,
      "##gh": 247,
      "##ay": 248,
      "##ur": 249,
      "##id": 250,
      "for": 251,
      "##ly": 252,
      "##ch": 253,
      "st": 254,
      "##ver": 255,
      "##ce": 256,
      "##im": 257,
      "##ir": 258,
      "##all": 259,
      "was": 260,
      "##ro": 261,
      "##ter": 262,
      "##am": 263,
      "##ke": 264,
      "##ith": 265,
      "an": 266,
      "this": 267,
      "##th": 268,
      "##ad": 269,
      "##oo": 270,
      "li": 271,
      "with": 272,
      "me": 273,
      "do": 274,
      "And": 275,
      "##ation": 276,
      "The": 277,
      "are": 278,
      "##ght": 279,
      "##op": 280,
      "he": 281,
      "se": 282,
      "as": 283,
      "have": 284,
      "##ill": 285,
      "##ome": 286,
      "sh": 287,
      "##ol": 288,
      "##il": 289,
      "can": 290,
      "##ra": 291,
      "##ould": 292,
      "ab": 293,
      "not": 294,
      "##ant": 295,
      "##ers": 296,
      "ne": 297,
      "##ess": 298,
      "##au": 299,
      "##ri": 300,
      "##est": 301,
      "##ally": 302,
      "at": 303,
      "##out": 304,
      "de": 305,
      "go": 306,
      "##ust": 307,
      "##ge": 308,
      "they": 309,
      "##ul": 310,
      "wor": 311,
      "##pp": 312,
      "##ight": 313,
      "all": 314,
      "com": 315,
      "ex": 316,
      "##ck": 317,
      "ch": 318,
      "so": 319,
      "con": 320,
      "my": 321,
      "pro": 322,
      "##ate": 323,
      "Wh": 324,
      "It": 325,
      "##ore": 326,
      "fr": 327,
      "or": 328,
      "We": 329,
      "You": 330,
      "##ear": 331,
      "about": 332,
      "what": 333,
      "##um": 334,
      "##ist": 335,
      "al": 336,
      "##art": 337,
      "##ig": 338,
      "kn": 339,
      "##ain": 340,
      "##un": 341,
      "##us": 342,
      "##ity": 343,
      "##ive": 344,
      "from": 345,
      "##em": 346,
      "##ab": 347,
      "##if": 348,
      "like": 349,
      "##ect": 350,
      "So": 351,
      "##ies": 352,
      "your": 353,
      "##and": 354,
      "su": 355,
      "know": 356,
      "##os": 357,
      "there": 358,
      "us": 359,
      "out": 360,
      "one": 361,
      "but": 362,
      "##ake": 363,
      "##her": 364,
      "##ort": 365,
      "by": 366,
      "##rou": 367,
      "##el": 368,
      "pe": 369,
      "up": 370,
      "##ink": 371,
      "##ind": 372,
      "sp": 373,
      "te": 374,
      "##od": 375,
      "##ople": 376,
      "##one": 377,
      "##ment": 378,
      "##ry": 379,
      "were": 380,
      "##ap": 381,
      "pl": 382,
      "our": 383,
      "en": 384,
      "get": 385,
      "##ook": 386,
      "people": 387,
      "##ci": 388,
      "##ause": 389,
      "But": 390,
      "##ie": 391,
      "##ak": 392,
      "##ood": 393,
      "them": 394,
      "had": 395,
      "just": 396,
      "bec": 397,
      "##ame": 398,
      "##ost": 399,
      "##ard": 400,
      "##ure": 401,
      "tim": 402,
      "He": 403,
      "In": 404,
      "##our": 405,
      "##ast": 406,
      "more": 407,
      "##ack": 408,
      "le": 409,
      "if": 410,
      "##ery": 411,
      "don": 412,
      "think": 413,
      "##ong": 414,
      "##ine": 415,
      "pr": 416,
      "who": 417,
      "some": 418,
      "see": 419,
      "im": 420,
      "want": 421,
      "would": 422,
      "##iv": 423,
      "their": 424,
      "int": 425,
      "##00": 426,
      "ve": 427,
      "##ag": 428,
      "##..": 429,
      "man": 430,
      "year": 431,
      "##ous": 432,
      "...": 433,
      "##ich": 434,
      "ever": 435,
      "has": 436,
      "##ud": 437,
      "thing": 438,
      "comp": 439,
      "time": 440,
      "when": 441,
      "--": 442,
      "##iz": 443,
      "these": 444,
      "did": 445,
      "will": 446,
      "ll": 447,
      "##ose": 448,
      "##og": 449,
      "here": 450,
      "work": 451,
      "very": 452,
      "un": 453,
      "##hing": 454,
      "##ven": 455,
      "##ther": 456,
      "##ans": 457,
      "##ions": 458,
      "##ep": 459,
      "any": 460,
      "her": 461,
      "##ach": 462,
      "going": 463,
      "##ence": 464,
      "##act": 465,
      "##ble": 466,
      "how": 467,
      "been": 468,
      "What": 469,
      "fe": 470,
      "his": 471,
      "##reat": 472,
      "##ace": 473,
      "no": 474,
      "ag": 475,
      "##ber": 476,
      "This": 477,
      "##ide": 478,
      "exp": 479,
      "##ice": 480,
      "act": 481,
      "tr": 482,
      "##oun": 483,
      "##nder": 484,
      "could": 485,
      "##ff": 486,
      "way": 487,
      "him": 488,
      "##so": 489,
      "look": 490,
      "right": 491,
      "because": 492,
      "which": 493,
      "cl": 494,
      "res": 495,
      "##age": 496,
      "##qu": 497,
      "##ish": 498,
      "per": 499,
      "qu": 500,
      "##itt": 501,
      "every": 502,
      "now": 503,
      "co": 504,
      "##ild": 505,
      "19": 506,
      "other": 507,
      "than": 508,
      "sa": 509,
      "##end": 510,
      "##ical": 511,
      "ar": 512,
      "That": 513,
      "##omet": 514,
      "They": 515,
      "tw": 516,
      "##fer": 517,
      "over": 518,
      "into": 519,
      "part": 520,
      "##own": 521,
      "##pt": 522,
      "##irst": 523,
      "##ia": 524,
      "she": 525,
      "##cc": 526,
      "world": 527,
      "##ree": 528,
      "##ated": 529,
      "##ip": 530,
      "got": 531,
      "also": 532,
      "really": 533,
      "##alk": 534,
      "dis": 535,
      "##ang": 536,
      "##are": 537,
      "##way": 538,
      "years": 539,
      "##ually": 540,
      "##ount": 541,
      "imp": 542,
      "##ob": 543,
      "##ite": 544,
      "then": 545,
      "cont": 546,
      "##ase": 547,
      "where": 548,
      "make": 549,
      "need": 550,
      "lo": 551,
      "##able": 552,
      "##ound": 553,
      "bet": 554,
      "##sel": 555,
      "two": 556,
      "##ass": 557,
      "##ign": 558,
      "##ac": 559,
      "back": 560,
      "##orm": 561,
      "ad": 562,
      "##ue": 563,
      "##ary": 564,
      "only": 565,
      "somet": 566,
      "##he": 567,
      "##ations": 568,
      "##augh": 569,
      "first": 570,
      "##ater": 571,
      "Now": 572,
      "new": 573,
      "say": 574,
      "##ult": 575,
      "##ru": 576,
      "happ": 577,
      "day": 578,
      "inter": 579,
      "##ance": 580,
      "dif": 581,
      "##uch": 582,
      "bu": 583,
      "##ens": 584,
      "##fe": 585,
      "##ory": 586,
      "##ick": 587,
      "##ving": 588,
      "##aughter": 589,
      "too": 590,
      "##round": 591,
      "##ents": 592,
      "##vel": 593,
      "##other": 594,
      "inc": 595,
      "##ell": 596,
      "am": 597,
      "under": 598,
      "good": 599,
      "things": 600,
      "##ire": 601,
      "off": 602,
      "much": 603,
      "comm": 604,
      "##ade": 605,
      "##ves": 606,
      "most": 607,
      "St": 608,
      "##du": 609,
      "##fter": 610,
      "take": 611,
      "##ved": 612,
      "##ec": 613,
      "even": 614,
      "something": 615,
      "start": 616,
      "There": 617,
      "those": 618,
      "po": 619,
      "bl": 620,
      "##ough": 621,
      "##ning": 622,
      "Well": 623,
      "Ch": 624,
      "Laughter": 625,
      "##ittle": 626,
      "pre": 627,
      "many": 628,
      "down": 629,
      "tell": 630,
      "##ody": 631,
      "##ict": 632,
      "##olog": 633,
      "How": 634,
      "little": 635,
      "call": 636,
      "mo": 637,
      "##wn": 638,
      "des": 639,
      "##per": 640,
      "##ile": 641,
      "differ": 642,
      "##ond": 643,
      "No": 644,
      "actually": 645,
      "sy": 646,
      "##ple": 647,
      "##ub": 648,
      "##pl": 649,
      "##ors": 650,
      "20": 651,
      "talk": 652,
      "come": 653,
      "id": 654,
      "life": 655,
      "If": 656,
      "##ial": 657,
      "does": 658,
      "app": 659,
      "##ord": 660,
      "##ian": 661,
      "ph": 662,
      "##ark": 663,
      "##rough": 664,
      "may": 665,
      "em": 666,
      "##thing": 667,
      "##igh": 668,
      "She": 669,
      "ro": 670,
      "##row": 671,
      "##ath": 672,
      "##ank": 673,
      "##ea": 674,
      "sc": 675,
      "##ft": 676,
      "##ress": 677,
      "##form": 678,
      "##ition": 679,
      "##urn": 680,
      "##ew": 681,
      "##int": 682,
      "rec": 683,
      "again": 684,
      "through": 685,
      "tra": 686,
      "##ons": 687,
      "On": 688,
      "##self": 689,
      "count": 690,
      "##ren": 691,
      "let": 692,
      "##ces": 693,
      "hum": 694,
      "lot": 695,
      "##iss": 696,
      "##fore": 697,
      "##oy": 698,
      "around": 699,
      "wr": 700,
      "##ange": 701,
      "dec": 702,
      "sm": 703,
      "##get": 704,
      "long": 705,
      "##ful": 706,
      "being": 707,
      "after": 708,
      "##ave": 709,
      "##ates": 710,
      "didn": 711,
      "##ail": 712,
      "hel": 713,
      "its": 714,
      "fl": 715,
      "rem": 716,
      "##ool": 717,
      "kind": 718,
      "##ph": 719,
      "##we": 720,
      "car": 721,
      "real": 722,
      "use": 723,
      "##stem": 724,
      "200": 725,
      "should": 726,
      "##mer": 727,
      "##cial": 728,
      "same": 729,
      "different": 730,
      "ind": 731,
      "bel": 732,
      "##ting": 733,
      "##day": 734,
      "well": 735,
      "never": 736,
      "help": 737,
      "##ather": 738,
      "gu": 739,
      "##ious": 740,
      "pol": 741,
      "##iver": 742,
      "br": 743,
      "##oc": 744,
      "##ual": 745,
      "##ty": 746,
      "stud": 747,
      "##ower": 748,
      "find": 749,
      "gen": 750,
      "##ities": 751,
      "own": 752,
      "three": 753,
      "##erm": 754,
      "made": 755,
      "##ought": 756,
      "##ject": 757,
      "##ction": 758,
      "##xt": 759,
      "##ope": 760,
      "##oss": 761,
      "##ible": 762,
      "inv": 763,
      "system": 764,
      "##aking": 765,
      "##av": 766,
      "child": 767,
      "rel": 768,
      "wom": 769,
      "happen": 770,
      "##lic": 771,
      "ser": 772,
      "show": 773,
      "rep": 774,
      "pers": 775,
      "sec": 776,
      "Oh": 777,
      "Un": 778,
      "put": 779,
      "before": 780,
      "##oth": 781,
      "##ited": 782,
      "##gan": 783,
      "##ese": 784,
      "cons": 785,
      "try": 786,
      "##ib": 787,
      "sur": 788,
      "##be": 789,
      "ask": 790,
      "spe": 791,
      "##ily": 792,
      "##red": 793,
      "##ced": 794,
      "att": 795,
      "##ric": 796,
      "feel": 797,
      "old": 798,
      "acc": 799,
      "##les": 800,
      "##ull": 801,
      "##ise": 802,
      "##ating": 803,
      "said": 804,
      "##ng": 805,
      "end": 806,
      "##ied": 807,
      "##ert": 808,
      "Mr": 809,
      "ev": 810,
      "better": 811,
      "still": 812,
      "##blem": 813,
      "supp": 814,
      "As": 815,
      "Yes": 816,
      "##chn": 817,
      "##ars": 818,
      "##ys": 819,
      "problem": 820,
      "big": 821,
      "fact": 822,
      "used": 823,
      "great": 824,
      "##cent": 825,
      "ac": 826,
      "sim": 827,
      "mean": 828,
      "last": 829,
      "##ational": 830,
      "sch": 831,
      "play": 832,
      "human": 833,
      "why": 834,
      "underst": 835,
      "##ics": 836,
      "##als": 837,
      "##atter": 838,
      "##illion": 839,
      "high": 840,
      "When": 841,
      "hand": 842,
      "num": 843,
      "ke": 844,
      "##te": 845,
      "##ution": 846,
      "##body": 847,
      "belie": 848,
      "found": 849,
      "cour": 850,
      "love": 851,
      "produ": 852,
      "ob": 853,
      "import": 854,
      "##ween": 855,
      "##ady": 856,
      "An": 857,
      "##aw": 858,
      "build": 859,
      "techn": 860,
      "doing": 861,
      "min": 862,
      "thought": 863,
      "home": 864,
      "000": 865,
      "mon": 866,
      "##arly": 867,
      "inst": 868,
      "lear": 869,
      "might": 870,
      "give": 871,
      "##ever": 872,
      "##ific": 873,
      "trans": 874,
      "##ss": 875,
      "fam": 876,
      "gl": 877,
      "##und": 878,
      "##ix": 879,
      "##velop": 880,
      "cr": 881,
      "##gin": 882,
      "person": 883,
      "quest": 884,
      "##ways": 885,
      "##ists": 886,
      "between": 887,
      "My": 888,
      "bra": 889,
      "ele": 890,
      "201": 891,
      "ins": 892,
      "Why": 893,
      "must": 894,
      "understand": 895,
      "##atch": 896,
      "bas": 897,
      "##oney": 898,
      "##vern": 899,
      "Is": 900,
      "##ology": 901,
      "##ize": 902,
      "Do": 903,
      "##ility": 904,
      "change": 905,
      "today": 906,
      "##ork": 907,
      "##riend": 908,
      "plan": 909,
      "each": 910,
      "For": 911,
      "All": 912,
      "##old": 913,
      "fin": 914,
      "develop": 915,
      "place": 916,
      "commun": 917,
      "##akes": 918,
      "exper": 919,
      "away": 920,
      "exam": 921,
      "important": 922,
      "cent": 923,
      "##any": 924,
      "percent": 925,
      "##cess": 926,
      "##con": 927,
      "such": 928,
      "##ically": 929,
      "##ward": 930,
      "care": 931,
      "reg": 932,
      "another": 933,
      "##air": 934,
      "coll": 935,
      "Amer": 936,
      "school": 937,
      "few": 938,
      "##alth": 939,
      "Americ": 940,
      "##ings": 941,
      "##ute": 942,
      "op": 943,
      "str": 944,
      "bus": 945,
      "sl": 946,
      ".\"": 947,
      "##der": 948,
      "##ism": 949,
      "Let": 950,
      "always": 951,
      "##ized": 952,
      "##oll": 953,
      "night": 954,
      "power": 955,
      "##uring": 956,
      "##cept": 957,
      "called": 958,
      "##ince": 959,
      "govern": 960,
      "##cy": 961,
      "##ock": 962,
      "tri": 963,
      "met": 964,
      "turn": 965,
      "mod": 966,
      "##ative": 967,
      "form": 968,
      "##ouse": 969,
      "##ures": 970,
      "eff": 971,
      "pub": 972,
      "friend": 973,
      "creat": 974,
      "comple": 975,
      "sci": 976,
      "design": 977,
      "came": 978,
      "##lease": 979,
      "Don": 980,
      "##ments": 981,
      "water": 982,
      "##ram": 983,
      "##ness": 984,
      "next": 985,
      "went": 986,
      "ext": 987,
      "##iness": 988,
      "course": 989,
      "med": 990,
      "lar": 991,
      "money": 992,
      "toget": 993,
      "together": 994,
      "interest": 995,
      "10": 996,
      "##ten": 997,
      "idea": 998,
      "##ait": 999,
      "##orn": 1000,
      "sol": 1001,
      "started": 1002,
      "##ember": 1003,
      "##yp": 1004,
      "##erg": 1005,
      "war": 1006,
      "##irl": 1007,
      "##tern": 1008,
      "##lud": 1009,
      "far": 1010,
      "point": 1011,
      "##ense": 1012,
      "able": 1013,
      "Al": 1014,
      "resp": 1015,
      "cap": 1016,
      "disc": 1017,
      "set": 1018,
      "hard": 1019,
      "##its": 1020,
      "##lish": 1021,
      "women": 1022,
      "##gg": 1023,
      "##hip": 1024,
      "gener": 1025,
      "small": 1026,
      "doesn": 1027,
      "left": 1028,
      "dat": 1029,
      "par": 1030,
      "four": 1031,
      "partic": 1032,
      "anything": 1033,
      "prot": 1034,
      "kid": 1035,
      "number": 1036,
      "##ks": 1037,
      "brain": 1038,
      "##az": 1039,
      "sub": 1040,
      "##ract": 1041,
      "live": 1042,
      "children": 1043,
      "learn": 1044,
      "gr": 1045,
      "add": 1046,
      "art": 1047,
      "el": 1048,
      "mar": 1049,
      "story": 1050,
      "mind": 1051,
      "poss": 1052,
      "wanted": 1053,
      "pres": 1054,
      "##ries": 1055,
      "enough": 1056,
      "kill": 1057,
      "country": 1058,
      "##ee": 1059,
      "##led": 1060,
      "keep": 1061,
      "App": 1062,
      "believe": 1063,
      "sign": 1064,
      "Not": 1065,
      "chang": 1066,
      "##ross": 1067,
      "second": 1068,
      "while": 1069,
      "##ale": 1070,
      "run": 1071,
      "cre": 1072,
      "##conom": 1073,
      "##land": 1074,
      "##ont": 1075,
      "open": 1076,
      "Tom": 1077,
      "##roup": 1078,
      "##ular": 1079,
      "stand": 1080,
      "done": 1081,
      "data": 1082,
      "##ital": 1083,
      "##ages": 1084,
      "mem": 1085,
      "expl": 1086,
      "Thank": 1087,
      "giv": 1088,
      "##ural": 1089,
      "##til": 1090,
      "won": 1091,
      "##ention": 1092,
      "##ets": 1093,
      "room": 1094,
      "Fr": 1095,
      "men": 1096,
      "grow": 1097,
      "head": 1098,
      "inf": 1099,
      "May": 1100,
      "bit": 1101,
      "includ": 1102,
      "inform": 1103,
      "##ience": 1104,
      "told": 1105,
      "gra": 1106,
      "matter": 1107,
      "book": 1108,
      "lead": 1109,
      "million": 1110,
      "beh": 1111,
      "example": 1112,
      "organ": 1113,
      "move": 1114,
      "bo": 1115,
      "month": 1116,
      "girl": 1117,
      "health": 1118,
      "econom": 1119,
      "ret": 1120,
      "fun": 1121,
      "without": 1122,
      "##ruct": 1123,
      "ago": 1124,
      "word": 1125,
      "##io": 1126,
      "##ird": 1127,
      "Af": 1128,
      "ent": 1129,
      "##ier": 1130,
      "less": 1131,
      "light": 1132,
      "took": 1133,
      "##res": 1134,
      "sure": 1135,
      "##over": 1136,
      "later": 1137,
      "cle": 1138,
      "##ices": 1139,
      "##ently": 1140,
      "##rib": 1141,
      "At": 1142,
      "vis": 1143,
      "mom": 1144,
      "dist": 1145,
      "five": 1146,
      "everything": 1147,
      "reas": 1148,
      "##ably": 1149,
      "government": 1150,
      "question": 1151,
      "##uth": 1152,
      "prog": 1153,
      "One": 1154,
      "##ected": 1155,
      "group": 1156,
      "pass": 1157,
      "wee": 1158,
      "best": 1159,
      "##lause": 1160,
      "##ants": 1161,
      "def": 1162,
      "##ues": 1163,
      "looking": 1164,
      "job": 1165,
      "dep": 1166,
      "Chin": 1167,
      "nothing": 1168,
      "name": 1169,
      "##ately": 1170,
      "##ines": 1171,
      "both": 1172,
      "rest": 1173,
      "read": 1174,
      "sk": 1175,
      "##cer": 1176,
      "ma": 1177,
      "cell": 1178,
      "##uck": 1179,
      "cur": 1180,
      "New": 1181,
      "These": 1182,
      "Applause": 1183,
      "days": 1184,
      "##ety": 1185,
      "hour": 1186,
      "Bec": 1187,
      "##pr": 1188,
      "Because": 1189,
      "seem": 1190,
      "##cle": 1191,
      "##ling": 1192,
      "Here": 1193,
      "pop": 1194,
      "bre": 1195,
      "##na": 1196,
      "business": 1197,
      "sing": 1198,
      "stop": 1199,
      "spec": 1200,
      "mor": 1201,
      "young": 1202,
      "become": 1203,
      "##ollow": 1204,
      "mus": 1205,
      "eas": 1206,
      "##arth": 1207,
      "family": 1208,
      "air": 1209,
      "nat": 1210,
      "##ivers": 1211,
      "working": 1212,
      "whole": 1213,
      "##selves": 1214,
      "dem": 1215,
      "Ind": 1216,
      "contro": 1217,
      "allow": 1218,
      "process": 1219,
      "Br": 1220,
      "red": 1221,
      "house": 1222,
      "law": 1223,
      "##alf": 1224,
      "United": 1225,
      "##wh": 1226,
      "trying": 1227,
      "det": 1228,
      "until": 1229,
      "##ories": 1230,
      "##iew": 1231,
      "Sh": 1232,
      "conf": 1233,
      "##ters": 1234,
      "technology": 1235,
      "##ined": 1236,
      "ass": 1237,
      "isn": 1238,
      "##imes": 1239,
      "199": 1240,
      "##osed": 1241,
      "seen": 1242,
      "pret": 1243,
      "18": 1244,
      "dri": 1245,
      "Where": 1246,
      "mark": 1247,
      "polit": 1248,
      "##amp": 1249,
      "##ne": 1250,
      "dr": 1251,
      "##earch": 1252,
      "##aut": 1253,
      "##ger": 1254,
      "information": 1255,
      "times": 1256,
      "##ided": 1257,
      "public": 1258,
      "social": 1259,
      "char": 1260,
      "prov": 1261,
      "saw": 1262,
      "getting": 1263,
      "bad": 1264,
      "often": 1265,
      "##uss": 1266,
      "Can": 1267,
      "food": 1268,
      "##ner": 1269,
      "else": 1270,
      "walk": 1271,
      "happened": 1272,
      "making": 1273,
      "##up": 1274,
      "wo": 1275,
      "wait": 1276,
      "Afric": 1277,
      "hist": 1278,
      "loc": 1279,
      "##bers": 1280,
      "list": 1281,
      "means": 1282,
      "hear": 1283,
      "contin": 1284,
      "##ired": 1285,
      "elect": 1286,
      "boy": 1287,
      "countries": 1288,
      "sir": 1289,
      "##angu": 1290,
      "state": 1291,
      "teach": 1292,
      "##ertain": 1293,
      "support": 1294,
      "eng": 1295,
      "using": 1296,
      "##ying": 1297,
      "since": 1298,
      "##ax": 1299,
      "sort": 1300,
      "##sw": 1301,
      "fut": 1302,
      "##ury": 1303,
      "city": 1304,
      "sw": 1305,
      "Good": 1306,
      "comput": 1307,
      "opp": 1308,
      "##aces": 1309,
      "Eur": 1310,
      "Come": 1311,
      "typ": 1312,
      "##eah": 1313,
      "coming": 1314,
      "##ret": 1315,
      "ref": 1316,
      "Ar": 1317,
      "##ider": 1318,
      "sit": 1319,
      "follow": 1320,
      "mil": 1321,
      "remember": 1322,
      "##ream": 1323,
      "order": 1324,
      "langu": 1325,
      "Just": 1326,
      "##ime": 1327,
      "Com": 1328,
      "pat": 1329,
      "incre": 1330,
      "##ead": 1331,
      "##ef": 1332,
      "land": 1333,
      "##outh": 1334,
      "body": 1335,
      "##ident": 1336,
      "##very": 1337,
      "future": 1338,
      "cor": 1339,
      "imag": 1340,
      "ey": 1341,
      "##ash": 1342,
      "Some": 1343,
      "begin": 1344,
      "half": 1345,
      "project": 1346,
      "stay": 1347,
      "wonder": 1348,
      "quite": 1349,
      "##ergy": 1350,
      "beaut": 1351,
      "##ether": 1352,
      "##ready": 1353,
      "case": 1354,
      "Europe": 1355,
      "pretty": 1356,
      "##work": 1357,
      "##ried": 1358,
      "col": 1359,
      "##aps": 1360,
      "pri": 1361,
      "##sp": 1362,
      "adv": 1363,
      "hope": 1364,
      "##vers": 1365,
      "maybe": 1366,
      "##duc": 1367,
      "To": 1368,
      "##less": 1369,
      "became": 1370,
      "##ife": 1371,
      "##ared": 1372,
      "research": 1373,
      "##most": 1374,
      "meet": 1375,
      "space": 1376,
      "yet": 1377,
      "answ": 1378,
      "pict": 1379,
      "thinking": 1380,
      "effect": 1381,
      "##eg": 1382,
      "already": 1383,
      "States": 1384,
      "val": 1385,
      "##ases": 1386,
      "wrong": 1387,
      "##ased": 1388,
      "##ote": 1389,
      "prob": 1390,
      "Mar": 1391,
      "once": 1392,
      "Then": 1393,
      "##vir": 1394,
      "against": 1395,
      "bi": 1396,
      "leave": 1397,
      "##ization": 1398,
      "##ulation": 1399,
      "class": 1400,
      "anim": 1401,
      "comes": 1402,
      "15": 1403,
      "##oot": 1404,
      "cond": 1405,
      "##ici": 1406,
      "##rop": 1407,
      "bring": 1408,
      "dire": 1409,
      "##ted": 1410,
      "##ality": 1411,
      "result": 1412,
      "create": 1413,
      "##ins": 1414,
      "##man": 1415,
      "talking": 1416,
      "leg": 1417,
      "const": 1418,
      "aff": 1419,
      "energy": 1420,
      "prof": 1421,
      "Jo": 1422,
      "##ences": 1423,
      "moment": 1424,
      "reason": 1425,
      "full": 1426,
      "cult": 1427,
      "Who": 1428,
      "father": 1429,
      "##ctor": 1430,
      "##uff": 1431,
      "pay": 1432,
      "term": 1433,
      "equ": 1434,
      "lives": 1435,
      "Be": 1436,
      "conn": 1437,
      "makes": 1438,
      "sound": 1439,
      "myself": 1440,
      "doll": 1441,
      "level": 1442,
      "test": 1443,
      "during": 1444,
      "che": 1445,
      "having": 1446,
      "mother": 1447,
      "wasn": 1448,
      "Eng": 1449,
      "Or": 1450,
      "building": 1451,
      "large": 1452,
      "##viron": 1453,
      "est": 1454,
      "requ": 1455,
      "treat": 1456,
      "cou": 1457,
      "##ron": 1458,
      "##ision": 1459,
      "Every": 1460,
      "knew": 1461,
      "early": 1462,
      "living": 1463,
      "soci": 1464,
      "side": 1465,
      "program": 1466,
      "woman": 1467,
      "##iet": 1468,
      "heart": 1469,
      "Sp": 1470,
      "fil": 1471,
      "pain": 1472,
      "##ral": 1473,
      "##ccess": 1474,
      "death": 1475,
      "imm": 1476,
      "ter": 1477,
      "certain": 1478,
      "##olution": 1479,
      "30": 1480,
      "##use": 1481,
      "across": 1482,
      "##tain": 1483,
      "watch": 1484,
      "six": 1485,
      "possible": 1486,
      "##els": 1487,
      "report": 1488,
      "Go": 1489,
      "educ": 1490,
      "miss": 1491,
      "oper": 1492,
      "##ug": 1493,
      "##reen": 1494,
      "iss": 1495,
      "serv": 1496,
      "almost": 1497,
      "Yeah": 1498,
      "speak": 1499,
      "heard": 1500,
      "free": 1501,
      "##ortun": 1502,
      "##side": 1503,
      "##ts": 1504,
      "##idd": 1505,
      "phys": 1506,
      "main": 1507,
      "along": 1508,
      "complete": 1509,
      "morning": 1510,
      "fig": 1511,
      "scient": 1512,
      "##ov": 1513,
      "company": 1514,
      "glob": 1515,
      "sense": 1516,
      "##ott": 1517,
      "##ike": 1518,
      "##iting": 1519,
      "##leep": 1520,
      "##ison": 1521,
      "friends": 1522,
      "environ": 1523,
      "months": 1524,
      "##jor": 1525,
      "##0s": 1526,
      "##raph": 1527,
      "##where": 1528,
      "probably": 1529,
      "##utes": 1530,
      "kids": 1531,
      "known": 1532,
      "ide": 1533,
      "single": 1534,
      "exc": 1535,
      "community": 1536,
      "face": 1537,
      "##ilt": 1538,
      "arm": 1539,
      "De": 1540,
      "cost": 1541,
      "yourself": 1542,
      "within": 1543,
      "true": 1544,
      "couldn": 1545,
      "control": 1546,
      "##ides": 1547,
      "someone": 1548,
      "##ield": 1549,
      "##ection": 1550,
      "After": 1551,
      "top": 1552,
      "##ister": 1553,
      ").": 1554,
      "##ised": 1555,
      "Are": 1556,
      "cau": 1557,
      "success": 1558,
      "##ape": 1559,
      "American": 1560,
      "##ousand": 1561,
      "hold": 1562,
      "asked": 1563,
      "By": 1564,
      "##thers": 1565,
      "##iful": 1566,
      "##iter": 1567,
      "answer": 1568,
      "invest": 1569,
      "Germ": 1570,
      "please": 1571,
      "ris": 1572,
      "##allen": 1573,
      "##ither": 1574,
      "began": 1575,
      "##fic": 1576,
      "av": 1577,
      "##ats": 1578,
      "wouldn": 1579,
      "experience": 1580,
      "100": 1581,
      "##erv": 1582,
      "Your": 1583,
      "##sc": 1584,
      "appro": 1585,
      "age": 1586,
      "##ives": 1587,
      "However": 1588,
      "thousand": 1589,
      "sent": 1590,
      "consider": 1591,
      "intern": 1592,
      "product": 1593,
      "language": 1594,
      "though": 1595,
      "ways": 1596,
      "Look": 1597,
      "##ots": 1598,
      "yes": 1599,
      "##ex": 1600,
      "train": 1601,
      "##ured": 1602,
      "cra": 1603,
      "##ones": 1604,
      "history": 1605,
      "dev": 1606,
      "var": 1607,
      "pos": 1608,
      "##rem": 1609,
      "pie": 1610,
      "##ane": 1611,
      "prom": 1612,
      "least": 1613,
      "##orry": 1614,
      "study": 1615,
      "##ivid": 1616,
      "bro": 1617,
      "##oice": 1618,
      "##ency": 1619,
      "##ograph": 1620,
      "exact": 1621,
      "dra": 1622,
      "##ames": 1623,
      "occ": 1624,
      "##ny": 1625,
      "##aken": 1626,
      "##dd": 1627,
      "##aper": 1628,
      "others": 1629,
      "##uge": 1630,
      "##imate": 1631,
      "entire": 1632,
      "discover": 1633,
      "##lf": 1634,
      "jo": 1635,
      "Did": 1636,
      "##undred": 1637,
      "music": 1638,
      "environment": 1639,
      "##par": 1640,
      "major": 1641,
      "problems": 1642,
      "##ior": 1643,
      "beautiful": 1644,
      "mach": 1645,
      "##ush": 1646,
      "lab": 1647,
      "##att": 1648,
      "soon": 1649,
      "##orrow": 1650,
      "##arl": 1651,
      "team": 1652,
      "##itive": 1653,
      "black": 1654,
      "pur": 1655,
      "simple": 1656,
      "##ept": 1657,
      "With": 1658,
      "fund": 1659,
      "alone": 1660,
      "##ogn": 1661,
      "goes": 1662,
      "hours": 1663,
      "sever": 1664,
      "indust": 1665,
      "rob": 1666,
      "##cing": 1667,
      "whether": 1668,
      "based": 1669,
      "deep": 1670,
      "game": 1671,
      "quick": 1672,
      "##gest": 1673,
      "science": 1674,
      "inside": 1675,
      "12": 1676,
      "prev": 1677,
      "past": 1678,
      "rather": 1679,
      "lost": 1680,
      "aw": 1681,
      "##ah": 1682,
      "hundred": 1683,
      "interesting": 1684,
      "pati": 1685,
      "phot": 1686,
      "##aster": 1687,
      "century": 1688,
      "fight": 1689,
      "global": 1690,
      "political": 1691,
      "stuff": 1692,
      "several": 1693,
      "including": 1694,
      "happens": 1695,
      "break": 1696,
      "dise": 1697,
      "Maybe": 1698,
      "Africa": 1699,
      "##orth": 1700,
      "##port": 1701,
      "##ains": 1702,
      "gave": 1703,
      "dollars": 1704,
      "##ficult": 1705,
      "individ": 1706,
      "##ove": 1707,
      "##br": 1708,
      "challen": 1709,
      "difficult": 1710,
      "##atic": 1711,
      "##kay": 1712,
      "sleep": 1713,
      "sex": 1714,
      "##ental": 1715,
      "##itions": 1716,
      "listen": 1717,
      "##ional": 1718,
      "front": 1719,
      "close": 1720,
      "del": 1721,
      "dead": 1722,
      "exist": 1723,
      "activ": 1724,
      "198": 1725,
      "Re": 1726,
      "ori": 1727,
      "third": 1728,
      "ident": 1729,
      "mag": 1730,
      "net": 1731,
      "rev": 1732,
      "Earth": 1733,
      "view": 1734,
      "ann": 1735,
      "market": 1736,
      "50": 1737,
      "students": 1738,
      "##bs": 1739,
      "minutes": 1740,
      "China": 1741,
      "line": 1742,
      "rad": 1743,
      "taking": 1744,
      "late": 1745,
      "words": 1746,
      "decided": 1747,
      "bab": 1748,
      "##ned": 1749,
      "record": 1750,
      "wind": 1751,
      "ill": 1752,
      "##app": 1753,
      "wife": 1754,
      "self": 1755,
      "##arm": 1756,
      "##iversity": 1757,
      "built": 1758,
      "individual": 1759,
      "##ards": 1760,
      "short": 1761,
      "##ump": 1762,
      "Intern": 1763,
      "present": 1764,
      "haven": 1765,
      "picture": 1766,
      "looks": 1767,
      "##omes": 1768,
      "relations": 1769,
      "eat": 1770,
      "##wards": 1771,
      "##itch": 1772,
      "object": 1773,
      "deal": 1774,
      "planet": 1775,
      "return": 1776,
      "pick": 1777,
      "works": 1778,
      "Chr": 1779,
      "##mber": 1780,
      "sometimes": 1781,
      "fail": 1782,
      "reach": 1783,
      "guy": 1784,
      "##ination": 1785,
      "##osp": 1786,
      "##une": 1787,
      "common": 1788,
      "happy": 1789,
      "mater": 1790,
      "offic": 1791,
      "##onna": 1792,
      "##haps": 1793,
      "Pe": 1794,
      "ra": 1795,
      "week": 1796,
      "Tw": 1797,
      "##iol": 1798,
      "##lt": 1799,
      "##oon": 1800,
      "cells": 1801,
      "pract": 1802,
      "vers": 1803,
      "drink": 1804,
      "abs": 1805,
      "##elt": 1806,
      "fre": 1807,
      "police": 1808,
      "##ung": 1809,
      "##ideo": 1810,
      "computer": 1811,
      "##ator": 1812,
      "##not": 1813,
      "##ern": 1814,
      "##ption": 1815,
      "Miss": 1816,
      "York": 1817,
      "billion": 1818,
      "share": 1819,
      "##ained": 1820,
      "##ians": 1821,
      "hands": 1822,
      "easy": 1823,
      "nice": 1824,
      "##reet": 1825,
      "strong": 1826,
      "systems": 1827,
      "rece": 1828,
      "##ploy": 1829,
      "##ocus": 1830,
      "America": 1831,
      "##acter": 1832,
      "struct": 1833,
      "poor": 1834,
      "##line": 1835,
      "longer": 1836,
      "##ability": 1837,
      "##iddle": 1838,
      "meas": 1839,
      "##ton": 1840,
      "trad": 1841,
      "film": 1842,
      "perform": 1843,
      "population": 1844,
      "exactly": 1845,
      "##by": 1846,
      "##lished": 1847,
      "lim": 1848,
      "priv": 1849,
      "Get": 1850,
      "direct": 1851,
      "##iqu": 1852,
      "dest": 1853,
      "##pped": 1854,
      "engine": 1855,
      "His": 1856,
      "questions": 1857,
      "gonna": 1858,
      "non": 1859,
      "##idence": 1860,
      "Pro": 1861,
      "English": 1862,
      "hot": 1863,
      "Mrs": 1864,
      "taken": 1865,
      "##ued": 1866,
      "##read": 1867,
      "mess": 1868,
      "##llo": 1869,
      "outside": 1870,
      "11": 1871,
      "material": 1872,
      "Ex": 1873,
      "stories": 1874,
      "##ged": 1875,
      "##ective": 1876,
      "focus": 1877,
      "mass": 1878,
      "sold": 1879,
      "couple": 1880,
      "given": 1881,
      "##rew": 1882,
      "dream": 1883,
      "##right": 1884,
      "vir": 1885,
      "local": 1886,
      "gone": 1887,
      "##ential": 1888,
      "fire": 1889,
      "hur": 1890,
      "##rought": 1891,
      "impro": 1892,
      "##ully": 1893,
      "##ges": 1894,
      "step": 1895,
      "worked": 1896,
      "ap": 1897,
      "imagine": 1898,
      "##ok": 1899,
      "themselves": 1900,
      "learned": 1901,
      "area": 1902,
      "17": 1903,
      "cut": 1904,
      "cir": 1905,
      "af": 1906,
      "Please": 1907,
      "tool": 1908,
      "looked": 1909,
      "##icro": 1910,
      "ideas": 1911,
      "killed": 1912,
      "society": 1913,
      "education": 1914,
      "instead": 1915,
      "##rug": 1916,
      "##ler": 1917,
      "##mb": 1918,
      "##olved": 1919,
      "##ished": 1920,
      "completely": 1921,
      "compan": 1922,
      "##ering": 1923,
      "attack": 1924,
      "eyes": 1925,
      "##apan": 1926,
      "##uly": 1927,
      "everyone": 1928,
      "##ological": 1929,
      "##ature": 1930,
      "Japan": 1931,
      "cannot": 1932,
      "sorry": 1933,
      "model": 1934,
      "send": 1935,
      "gets": 1936,
      "news": 1937,
      "created": 1938,
      "development": 1939,
      "minute": 1940,
      "felt": 1941,
      "##though": 1942,
      "##raid": 1943,
      "##ules": 1944,
      "aut": 1945,
      "polic": 1946,
      "repres": 1947,
      "spend": 1948,
      "recogn": 1949,
      "economic": 1950,
      "Of": 1951,
      "##ially": 1952,
      "God": 1953,
      "pot": 1954,
      "##ony": 1955,
      "blood": 1956,
      "##cially": 1957,
      "enc": 1958,
      "needs": 1959,
      "caus": 1960,
      "origin": 1961,
      "ant": 1962,
      "##ration": 1963,
      "itself": 1964,
      "197": 1965,
      "says": 1966,
      "buy": 1967,
      "##sy": 1968,
      "##utions": 1969,
      "##anger": 1970,
      "##itting": 1971,
      "either": 1972,
      "##ilar": 1973,
      "##ode": 1974,
      "viol": 1975,
      "town": 1976,
      "access": 1977,
      "network": 1978,
      "Brit": 1979,
      "rele": 1980,
      "changed": 1981,
      "tom": 1982,
      "afraid": 1983,
      "Con": 1984,
      "dig": 1985,
      "mot": 1986,
      "OK": 1987,
      "di": 1988,
      "##ows": 1989,
      "##ming": 1990,
      "behind": 1991,
      "fell": 1992,
      "super": 1993,
      "Will": 1994,
      "South": 1995,
      "##ples": 1996,
      "win": 1997,
      "special": 1998,
      "perf": 1999,
      "amaz": 2000,
      "tried": 2001,
      "16": 2002,
      "tot": 2003,
      "event": 2004,
      "low": 2005,
      "##eral": 2006,
      "pred": 2007,
      "##aring": 2008,
      "guess": 2009,
      "US": 2010,
      "##ium": 2011,
      "##ified": 2012,
      "##ivil": 2013,
      "##iously": 2014,
      "tem": 2015,
      "opportun": 2016,
      "##etic": 2017,
      "inn": 2018,
      "Wor": 2019,
      "prop": 2020,
      "press": 2021,
      "##rodu": 2022,
      "##iod": 2023,
      "25": 2024,
      "relationship": 2025,
      "##ented": 2026,
      "bar": 2027,
      "##ances": 2028,
      "companies": 2029,
      "field": 2030,
      "##hn": 2031,
      "complex": 2032,
      "brought": 2033,
      "##ived": 2034,
      "experim": 2035,
      "species": 2036,
      "Russ": 2037,
      "##zy": 2038,
      "respons": 2039,
      "auth": 2040,
      "##fully": 2041,
      "jour": 2042,
      "phone": 2043,
      "enter": 2044,
      "Our": 2045,
      "needed": 2046,
      "parents": 2047,
      "fear": 2048,
      "Right": 2049,
      "##itary": 2050,
      "##unch": 2051,
      "died": 2052,
      "tele": 2053,
      "white": 2054,
      "places": 2055,
      "drug": 2056,
      "lea": 2057,
      "saying": 2058,
      "##urther": 2059,
      "##eb": 2060,
      "camp": 2061,
      "ton": 2062,
      "##iverse": 2063,
      "mult": 2064,
      "##arch": 2065,
      "Comm": 2066,
      "ones": 2067,
      "amount": 2068,
      "appear": 2069,
      "expect": 2070,
      "##my": 2071,
      "fall": 2072,
      "somebody": 2073,
      "Pr": 2074,
      "national": 2075,
      "wish": 2076,
      "mill": 2077,
      "Ph": 2078,
      "suff": 2079,
      "sour": 2080,
      "Chinese": 2081,
      "cancer": 2082,
      "Hello": 2083,
      "party": 2084,
      "World": 2085,
      "period": 2086,
      "adm": 2087,
      "everybody": 2088,
      "##cri": 2089,
      "##ored": 2090,
      "norm": 2091,
      "key": 2092,
      "##rench": 2093,
      "curr": 2094,
      "obs": 2095,
      "risk": 2096,
      "takes": 2097,
      "div": 2098,
      "natural": 2099,
      "John": 2100,
      "hosp": 2101,
      "##head": 2102,
      "bed": 2103,
      "truth": 2104,
      "animals": 2105,
      "seven": 2106,
      "conv": 2107,
      "arch": 2108,
      "behav": 2109,
      "196": 2110,
      "Mus": 2111,
      "ben": 2112,
      "son": 2113,
      "infl": 2114,
      "##por": 2115,
      "near": 2116,
      "anyone": 2117,
      "redu": 2118,
      "surv": 2119,
      "sens": 2120,
      "ste": 2121,
      "##amed": 2122,
      "office": 2123,
      "travel": 2124,
      "bott": 2125,
      "cities": 2126,
      "Any": 2127,
      "Ge": 2128,
      "trou": 2129,
      "fac": 2130,
      "chance": 2131,
      "tomorrow": 2132,
      "amazing": 2133,
      "##ended": 2134,
      "##itional": 2135,
      "famil": 2136,
      "##spe": 2137,
      "ge": 2138,
      "##band": 2139,
      "similar": 2140,
      "grand": 2141,
      "##aged": 2142,
      "##ik": 2143,
      "##cum": 2144,
      "incred": 2145,
      "born": 2146,
      "learning": 2147,
      "figure": 2148,
      "hor": 2149,
      "##lect": 2150,
      "##urity": 2151,
      "##istic": 2152,
      "members": 2153,
      "nature": 2154,
      "sum": 2155,
      "Christ": 2156,
      "die": 2157,
      "dark": 2158,
      "eight": 2159,
      "ourselves": 2160,
      "fast": 2161,
      "weeks": 2162,
      "surpr": 2163,
      "Have": 2164,
      "Take": 2165,
      "Cl": 2166,
      "War": 2167,
      "##ades": 2168,
      "arg": 2169,
      "beginning": 2170,
      "French": 2171,
      "ready": 2172,
      "clear": 2173,
      "##ibility": 2174,
      "disease": 2175,
      "##ouch": 2176,
      "intell": 2177,
      "##face": 2178,
      "particular": 2179,
      "door": 2180,
      "ship": 2181,
      "##aim": 2182,
      "arr": 2183,
      "thousands": 2184,
      "post": 2185,
      "##ey": 2186,
      "##ators": 2187,
      "repl": 2188,
      "Sc": 2189,
      "##specially": 2190,
      "##aly": 2191,
      "India": 2192,
      "hon": 2193,
      "##ply": 2194,
      "##ateg": 2195,
      "aren": 2196,
      "fly": 2197,
      "##ising": 2198,
      "##ales": 2199,
      "##ensive": 2200,
      "seems": 2201,
      "194": 2202,
      "##reme": 2203,
      "##aid": 2204,
      "##men": 2205,
      "video": 2206,
      "communic": 2207,
      "piece": 2208,
      "personal": 2209,
      "changes": 2210,
      "Bl": 2211,
      "married": 2212,
      "People": 2213,
      "impact": 2214,
      "colle": 2215,
      "##ibly": 2216,
      "##ole": 2217,
      "perfect": 2218,
      "aud": 2219,
      "conc": 2220,
      "developed": 2221,
      "relig": 2222,
      "specific": 2223,
      "ur": 2224,
      "##urs": 2225,
      "write": 2226,
      "##uation": 2227,
      "difference": 2228,
      "paper": 2229,
      "wall": 2230,
      "stra": 2231,
      "profess": 2232,
      "40": 2233,
      "liter": 2234,
      "##imin": 2235,
      "emot": 2236,
      "happening": 2237,
      "ground": 2238,
      "tre": 2239,
      "compet": 2240,
      "dou": 2241,
      "among": 2242,
      "bank": 2243,
      "hus": 2244,
      "seeing": 2245,
      "squ": 2246,
      "##itiz": 2247,
      "quickly": 2248,
      "crit": 2249,
      "media": 2250,
      "##ney": 2251,
      "emb": 2252,
      "turned": 2253,
      "civil": 2254,
      "baby": 2255,
      "##ests": 2256,
      "##ression": 2257,
      "comb": 2258,
      "##ission": 2259,
      "14": 2260,
      "huge": 2261,
      "sun": 2262,
      "wants": 2263,
      "cal": 2264,
      "##ror": 2265,
      "##ED": 2266,
      "##oms": 2267,
      "sugg": 2268,
      "##acy": 2269,
      "Okay": 2270,
      "cop": 2271,
      "attention": 2272,
      "##verage": 2273,
      "##ighb": 2274,
      "wonderful": 2275,
      "oce": 2276,
      "fav": 2277,
      "##ober": 2278,
      "husband": 2279,
      "size": 2280,
      "##ware": 2281,
      "chem": 2282,
      "gun": 2283,
      "moving": 2284,
      "spent": 2285,
      "thank": 2286,
      "accept": 2287,
      "waiting": 2288,
      "foot": 2289,
      "##ledge": 2290,
      "##arr": 2291,
      "##ording": 2292,
      "feeling": 2293,
      "micro": 2294,
      "trust": 2295,
      "##asing": 2296,
      "bur": 2297,
      "neighb": 2298,
      "culture": 2299,
      "tonight": 2300,
      "areas": 2301,
      "prin": 2302,
      "simply": 2303,
      "connect": 2304,
      "worry": 2305,
      "proper": 2306,
      "consum": 2307,
      "soft": 2308,
      "forget": 2309,
      "knows": 2310,
      "##cious": 2311,
      "machine": 2312,
      "account": 2313,
      "##ule": 2314,
      "especially": 2315,
      "luck": 2316,
      "),": 2317,
      "arri": 2318,
      "Sw": 2319,
      "middle": 2320,
      "scale": 2321,
      "further": 2322,
      "finally": 2323,
      "math": 2324,
      "interact": 2325,
      "resour": 2326,
      "military": 2327,
      "Man": 2328,
      "ed": 2329,
      "girls": 2330,
      "##artment": 2331,
      "fine": 2332,
      "stat": 2333,
      "safe": 2334,
      "approach": 2335,
      "##airs": 2336,
      "dog": 2337,
      "sell": 2338,
      "humans": 2339,
      "##ills": 2340,
      "offer": 2341,
      "##oose": 2342,
      "worth": 2343,
      "parts": 2344,
      "avail": 2345,
      "value": 2346,
      "Her": 2347,
      "experi": 2348,
      "##oes": 2349,
      "##hood": 2350,
      "mur": 2351,
      "##NA": 2352,
      "Hey": 2353,
      "##oph": 2354,
      "##atever": 2355,
      "##epend": 2356,
      "estab": 2357,
      "##ify": 2358,
      "##inary": 2359,
      "##iam": 2360,
      "reality": 2361,
      "##ze": 2362,
      "doctor": 2363,
      "service": 2364,
      "13": 2365,
      "pull": 2366,
      "Even": 2367,
      "citiz": 2368,
      "perhaps": 2369,
      "First": 2370,
      "##gn": 2371,
      "##co": 2372,
      "##edi": 2373,
      "kinds": 2374,
      "forg": 2375,
      "extra": 2376,
      "Am": 2377,
      "prison": 2378,
      "touch": 2379,
      "##oid": 2380,
      "dear": 2381,
      "guys": 2382,
      "road": 2383,
      "books": 2384,
      "check": 2385,
      "turns": 2386,
      "leaders": 2387,
      "vol": 2388,
      "rights": 2389,
      "protect": 2390,
      "##nch": 2391,
      "Many": 2392,
      "##ularly": 2393,
      "##soci": 2394,
      "##eng": 2395,
      "Pol": 2396,
      "sn": 2397,
      "European": 2398,
      "international": 2399,
      "din": 2400,
      "powerful": 2401,
      "modern": 2402,
      "##olute": 2403,
      "Par": 2404,
      "green": 2405,
      "insp": 2406,
      "likely": 2407,
      "##bit": 2408,
      "##amer": 2409,
      "##sych": 2410,
      "ten": 2411,
      "interested": 2412,
      "From": 2413,
      "##oor": 2414,
      "##chie": 2415,
      "##ressed": 2416,
      "groups": 2417,
      "terms": 2418,
      "type": 2419,
      "necess": 2420,
      "numbers": 2421,
      "Sy": 2422,
      "fish": 2423,
      "employ": 2424,
      "industry": 2425,
      "medic": 2426,
      "danger": 2427,
      "mine": 2428,
      "convers": 2429,
      "basically": 2430,
      "Aust": 2431,
      "Per": 2432,
      "mist": 2433,
      "general": 2434,
      "##bo": 2435,
      "cover": 2436,
      "slow": 2437,
      "box": 2438,
      "North": 2439,
      "telling": 2440,
      "universe": 2441,
      "##ires": 2442,
      "##izing": 2443,
      "Har": 2444,
      "climate": 2445,
      "depend": 2446,
      "##ilities": 2447,
      "ain": 2448,
      "Internet": 2449,
      "Would": 2450,
      "dam": 2451,
      "ball": 2452,
      "German": 2453,
      "lived": 2454,
      "Pl": 2455,
      "Tr": 2456,
      "behavior": 2457,
      "sea": 2458,
      "##ested": 2459,
      "trouble": 2460,
      "sil": 2461,
      "##more": 2462,
      "##son": 2463,
      "force": 2464,
      "particip": 2465,
      "author": 2466,
      "##hod": 2467,
      "image": 2468,
      "himself": 2469,
      "hit": 2470,
      "##oint": 2471,
      "usually": 2472,
      "available": 2473,
      "deg": 2474,
      "running": 2475,
      "##ai": 2476,
      "ess": 2477,
      "led": 2478,
      "port": 2479,
      "##entle": 2480,
      "opt": 2481,
      "vill": 2482,
      "ability": 2483,
      "##ique": 2484,
      "evidence": 2485,
      "##asc": 2486,
      "medical": 2487,
      "scientists": 2488,
      "British": 2489,
      "##to": 2490,
      "fem": 2491,
      "##astic": 2492,
      "##iction": 2493,
      "democ": 2494,
      "##ites": 2495,
      "cold": 2496,
      "secret": 2497,
      "influ": 2498,
      "largest": 2499,
      "Like": 2500,
      "##ster": 2501,
      "195": 2502,
      "init": 2503,
      "signific": 2504,
      "growth": 2505,
      "claim": 2506,
      "growing": 2507,
      "patter": 2508,
      "##ishing": 2509,
      "##urch": 2510,
      "center": 2511,
      "cy": 2512,
      "lau": 2513,
      "knowledge": 2514,
      "economy": 2515,
      "realized": 2516,
      "cause": 2517,
      "moved": 2518,
      "dom": 2519,
      "Sec": 2520,
      "concer": 2521,
      "extreme": 2522,
      "announ": 2523,
      "neg": 2524,
      "##ruction": 2525,
      "##oke": 2526,
      "introdu": 2527,
      "lots": 2528,
      "earth": 2529,
      "##ipp": 2530,
      "##irth": 2531,
      "physical": 2532,
      "held": 2533,
      "playing": 2534,
      "patients": 2535,
      "threat": 2536,
      "##ene": 2537,
      "##aced": 2538,
      "murder": 2539,
      "pattern": 2540,
      "##itution": 2541,
      "##ays": 2542,
      "Geor": 2543,
      "except": 2544,
      "hospital": 2545,
      "Le": 2546,
      "Somet": 2547,
      "Ma": 2548,
      "##iny": 2549,
      "##oud": 2550,
      "##itten": 2551,
      "neur": 2552,
      "##bon": 2553,
      "giving": 2554,
      "oil": 2555,
      "capital": 2556,
      "benef": 2557,
      "psych": 2558,
      "opportunity": 2559,
      "##unk": 2560,
      "##ivity": 2561,
      "version": 2562,
      "Ab": 2563,
      "##itect": 2564,
      "Most": 2565,
      "mov": 2566,
      "##itted": 2567,
      "block": 2568,
      "allowed": 2569,
      "##eth": 2570,
      "meaning": 2571,
      "daughter": 2572,
      "peace": 2573,
      "clean": 2574,
      "stru": 2575,
      "carry": 2576,
      "##arily": 2577,
      "spread": 2578,
      "##sequ": 2579,
      "forward": 2580,
      "agre": 2581,
      "designed": 2582,
      "movement": 2583,
      "table": 2584,
      "cases": 2585,
      "represent": 2586,
      "##ival": 2587,
      "?\"": 2588,
      "##eed": 2589,
      "feet": 2590,
      "role": 2591,
      "separ": 2592,
      "color": 2593,
      "tax": 2594,
      "##ele": 2595,
      "##idge": 2596,
      "plant": 2597,
      "explain": 2598,
      "shall": 2599,
      "feed": 2600,
      "innov": 2601,
      "fix": 2602,
      "crazy": 2603,
      "released": 2604,
      "achie": 2605,
      "Me": 2606,
      "##empt": 2607,
      "issues": 2608,
      "average": 2609,
      "##nam": 2610,
      "street": 2611,
      "farm": 2612,
      "rate": 2613,
      "transform": 2614,
      "draw": 2615,
      "drive": 2616,
      "absolute": 2617,
      "blue": 2618,
      "Since": 2619,
      "path": 2620,
      "vari": 2621,
      "Jan": 2622,
      "cross": 2623,
      "Mary": 2624,
      "finan": 2625,
      "##mm": 2626,
      "search": 2627,
      "shows": 2628,
      "##ging": 2629,
      "discovered": 2630,
      "swe": 2631,
      "subject": 2632,
      "clos": 2633,
      "discuss": 2634,
      "##dden": 2635,
      "CA": 2636,
      "song": 2637,
      "Two": 2638,
      "park": 2639,
      "##iding": 2640,
      "structure": 2641,
      "##lo": 2642,
      "production": 2643,
      "sudden": 2644,
      "favor": 2645,
      "Tell": 2646,
      "Was": 2647,
      "##ement": 2648,
      "Cal": 2649,
      "##fort": 2650,
      "provide": 2651,
      "function": 2652,
      "ahead": 2653,
      "##uted": 2654,
      "prim": 2655,
      "##come": 2656,
      "deb": 2657,
      "##let": 2658,
      "##ift": 2659,
      "Tod": 2660,
      "issue": 2661,
      "destro": 2662,
      "July": 2663,
      "intellig": 2664,
      "##ively": 2665,
      "##ondon": 2666,
      "rock": 2667,
      "Ad": 2668,
      "##ext": 2669,
      "following": 2670,
      "London": 2671,
      "##used": 2672,
      "Dr": 2673,
      "fair": 2674,
      "ple": 2675,
      "birth": 2676,
      "wrote": 2677,
      "higher": 2678,
      "involved": 2679,
      "understanding": 2680,
      "National": 2681,
      "security": 2682,
      "##eter": 2683,
      "##uct": 2684,
      "##ped": 2685,
      "states": 2686,
      "##gle": 2687,
      "##isions": 2688,
      "##uary": 2689,
      "##ining": 2690,
      "Inst": 2691,
      "nu": 2692,
      "brother": 2693,
      "towards": 2694,
      "ocean": 2695,
      "##irm": 2696,
      "official": 2697,
      "tar": 2698,
      "voice": 2699,
      "##imately": 2700,
      "sou": 2701,
      "star": 2702,
      "policy": 2703,
      "surface": 2704,
      "save": 2705,
      "sat": 2706,
      "architect": 2707,
      "##room": 2708,
      "##anc": 2709,
      "whatever": 2710,
      "princi": 2711,
      "published": 2712,
      "rain": 2713,
      "react": 2714,
      "track": 2715,
      "asking": 2716,
      "##gen": 2717,
      "method": 2718,
      "##for": 2719,
      "##ask": 2720,
      "hundreds": 2721,
      "private": 2722,
      "fore": 2723,
      "significant": 2724,
      "boys": 2725,
      "TED": 2726,
      "##ference": 2727,
      "improve": 2728,
      "terri": 2729,
      "situation": 2730,
      "measure": 2731,
      "millions": 2732,
      "Cent": 2733,
      "DNA": 2734,
      "##oming": 2735,
      ",\"": 2736,
      "action": 2737,
      "realize": 2738,
      "sitting": 2739,
      "##ered": 2740,
      "obv": 2741,
      "gentle": 2742,
      "sick": 2743,
      "500": 2744,
      "letter": 2745,
      "##uel": 2746,
      "##ude": 2747,
      "however": 2748,
      "Sure": 2749,
      "##iers": 2750,
      "independ": 2751,
      "series": 2752,
      "communities": 2753,
      "lay": 2754,
      "considered": 2755,
      "##orts": 2756,
      "##ley": 2757,
      "grad": 2758,
      "##eal": 2759,
      "##ologies": 2760,
      "##uit": 2761,
      "meant": 2762,
      "tools": 2763,
      "unc": 2764,
      "remain": 2765,
      "\".": 2766,
      "smart": 2767,
      "speed": 2768,
      "kept": 2769,
      "vict": 2770,
      "##pect": 2771,
      "lose": 2772,
      "##thern": 2773,
      "June": 2774,
      "sal": 2775,
      "concept": 2776,
      "rich": 2777,
      "theory": 2778,
      "challenge": 2779,
      "camer": 2780,
      "due": 2781,
      "##igr": 2782,
      "pen": 2783,
      "manage": 2784,
      "trade": 2785,
      "predict": 2786,
      "jud": 2787,
      "services": 2788,
      "miles": 2789,
      "Today": 2790,
      "shoot": 2791,
      "##oring": 2792,
      "##ban": 2793,
      "193": 2794,
      "cool": 2795,
      "##umb": 2796,
      "gives": 2797,
      "mis": 2798,
      "##ann": 2799,
      "photograph": 2800,
      "##uh": 2801,
      "##erve": 2802,
      "choice": 2803,
      "##clear": 2804,
      "continue": 2805,
      "Oct": 2806,
      "serious": 2807,
      "character": 2808,
      "pack": 2809,
      "resources": 2810,
      "##onst": 2811,
      "position": 2812,
      "purp": 2813,
      "During": 2814,
      "Those": 2815,
      "launch": 2816,
      "##ened": 2817,
      "##entially": 2818,
      "stage": 2819,
      "##cil": 2820,
      "##ett": 2821,
      "particularly": 2822,
      "ice": 2823,
      "total": 2824,
      "fill": 2825,
      "log": 2826,
      "poll": 2827,
      "21": 2828,
      "anybody": 2829,
      "deliver": 2830,
      "cry": 2831,
      "##yond": 2832,
      "robot": 2833,
      "rules": 2834,
      "##fact": 2835,
      "##ina": 2836,
      "immedi": 2837,
      "foreign": 2838,
      "Sept": 2839,
      "##enty": 2840,
      "station": 2841,
      "occur": 2842,
      "hy": 2843,
      "##ring": 2844,
      "online": 2845,
      "January": 2846,
      "Jew": 2847,
      "##kes": 2848,
      "emerg": 2849,
      "Col": 2850,
      "cars": 2851,
      "breat": 2852,
      "normal": 2853,
      "En": 2854,
      "text": 2855,
      "September": 2856,
      "##enced": 2857,
      "stri": 2858,
      "##usion": 2859,
      "hop": 2860,
      "##estern": 2861,
      "flow": 2862,
      "##chan": 2863,
      "##ceed": 2864,
      "##lement": 2865,
      "loved": 2866,
      "changing": 2867,
      "violence": 2868,
      "##gar": 2869,
      "##attle": 2870,
      "See": 2871,
      "##crib": 2872,
      "March": 2873,
      "certainly": 2874,
      "showed": 2875,
      "October": 2876,
      "produce": 2877,
      "docum": 2878,
      "Im": 2879,
      "strateg": 2880,
      "families": 2881,
      "Su": 2882,
      "increase": 2883,
      "written": 2884,
      "attempt": 2885,
      "electric": 2886,
      "Dece": 2887,
      "##rect": 2888,
      "address": 2889,
      "standard": 2890,
      "Aug": 2891,
      "starting": 2892,
      "determ": 2893,
      "eye": 2894,
      "source": 2895,
      "##joy": 2896,
      "##abor": 2897,
      "##ublic": 2898,
      "meeting": 2899,
      "December": 2900,
      "quality": 2901,
      "2008": 2902,
      "writing": 2903,
      "citizens": 2904,
      "Rep": 2905,
      "##omen": 2906,
      "##lec": 2907,
      "potential": 2908,
      "anymore": 2909,
      "solve": 2910,
      "animal": 2911,
      "eventually": 2912,
      "##lict": 2913,
      "shot": 2914,
      "upon": 2915,
      "decision": 2916,
      "scientific": 2917,
      "circ": 2918,
      "demand": 2919,
      "##ps": 2920,
      "##ffee": 2921,
      "mad": 2922,
      "##cient": 2923,
      "60": 2924,
      "mount": 2925,
      "##rage": 2926,
      "##rict": 2927,
      "##apt": 2928,
      "##light": 2929,
      "tend": 2930,
      "applic": 2931,
      "Thanks": 2932,
      "capt": 2933,
      "##omm": 2934,
      "visit": 2935,
      "fundam": 2936,
      "cris": 2937,
      "cust": 2938,
      "sus": 2939,
      "##ners": 2940,
      "results": 2941,
      "patient": 2942,
      "named": 2943,
      "##racy": 2944,
      "Nove": 2945,
      "August": 2946,
      "er": 2947,
      "contrib": 2948,
      "reasons": 2949,
      "Act": 2950,
      "code": 2951,
      "##atory": 2952,
      "gas": 2953,
      "##rial": 2954,
      "##ims": 2955,
      "24": 2956,
      "earl": 2957,
      "##nal": 2958,
      "##odies": 2959,
      "##arling": 2960,
      "##ounds": 2961,
      "schools": 2962,
      "Gen": 2963,
      "esc": 2964,
      "software": 2965,
      "##inist": 2966,
      "beyond": 2967,
      "fle": 2968,
      "received": 2969,
      "creating": 2970,
      "hair": 2971,
      "workers": 2972,
      "disapp": 2973,
      "leaving": 2974,
      "recently": 2975,
      "announced": 2976,
      "November": 2977,
      "Acc": 2978,
      "above": 2979,
      "images": 2980,
      "hate": 2981,
      "mob": 2982,
      "sister": 2983,
      "target": 2984,
      "City": 2985,
      "2007": 2986,
      "catch": 2987,
      "nine": 2988,
      "unf": 2989,
      "detail": 2990,
      "Give": 2991,
      "##rast": 2992,
      "African": 2993,
      "alive": 2994,
      "wa": 2995,
      "##iant": 2996,
      "enjoy": 2997,
      "##avy": 2998,
      "##ops": 2999,
      "2010": 3000,
      "destroy": 3001,
      "ep": 3002,
      "carbon": 3003,
      "Car": 3004,
      "##rum": 3005,
      "Gu": 3006,
      "glass": 3007,
      "coun": 3008,
      "conditions": 3009,
      "##pite": 3010,
      "associ": 3011,
      "ord": 3012,
      "interv": 3013,
      "labor": 3014,
      "##rit": 3015,
      "##onse": 3016,
      "##icle": 3017,
      "basic": 3018,
      "evening": 3019,
      "nobody": 3020,
      "sust": 3021,
      "worse": 3022,
      "experiment": 3023,
      "##omb": 3024,
      "emp": 3025,
      "progress": 3026,
      "bird": 3027,
      "dro": 3028,
      "##ously": 3029,
      "##izations": 3030,
      "Only": 3031,
      "reading": 3032,
      "generation": 3033,
      "increasing": 3034,
      "Nothing": 3035,
      "training": 3036,
      "Apr": 3037,
      "mechan": 3038,
      "conflict": 3039,
      "April": 3040,
      "Fin": 3041,
      "choose": 3042,
      "solution": 3043,
      "Sch": 3044,
      "various": 3045,
      "##ox": 3046,
      "##unt": 3047,
      "Canad": 3048,
      "##ient": 3049,
      "effici": 3050,
      "ult": 3051,
      "##ground": 3052,
      "coffee": 3053,
      "molec": 3054,
      "financial": 3055,
      "West": 3056,
      "##emat": 3057,
      "products": 3058,
      "hurt": 3059,
      "##aries": 3060,
      "although": 3061,
      "##agn": 3062,
      "region": 3063,
      "defin": 3064,
      "Bra": 3065,
      "##ctors": 3066,
      "response": 3067,
      "lady": 3068,
      "supposed": 3069,
      "jobs": 3070,
      "##icians": 3071,
      "reported": 3072,
      "final": 3073,
      "assum": 3074,
      "##othes": 3075,
      "France": 3076,
      "sounds": 3077,
      "ast": 3078,
      "##dom": 3079,
      "legal": 3080,
      "##rated": 3081,
      "##ev": 3082,
      "evolution": 3083,
      "Japanese": 3084,
      "bottom": 3085,
      "Austral": 3086,
      "nearly": 3087,
      "##enn": 3088,
      "becomes": 3089,
      "distrib": 3090,
      "revolution": 3091,
      "##vision": 3092,
      "successful": 3093,
      "memory": 3094,
      "##ero": 3095,
      "commer": 3096,
      "Germany": 3097,
      "multip": 3098,
      "mid": 3099,
      "##ief": 3100,
      "talked": 3101,
      "Fl": 3102,
      "tur": 3103,
      "##esh": 3104,
      "suppose": 3105,
      "freed": 3106,
      "Qu": 3107,
      "rap": 3108,
      "##iber": 3109,
      "##atives": 3110,
      "##terday": 3111,
      "##ken": 3112,
      "digital": 3113,
      "Gra": 3114,
      "cat": 3115,
      "forces": 3116,
      "##aul": 3117,
      "student": 3118,
      "laugh": 3119,
      "print": 3120,
      "##eren": 3121,
      "##ulate": 3122,
      "corn": 3123,
      "throughout": 3124,
      "tiny": 3125,
      "##istan": 3126,
      "technologies": 3127,
      "straight": 3128,
      "##oices": 3129,
      "games": 3130,
      "helped": 3131,
      "belong": 3132,
      "developing": 3133,
      "Ag": 3134,
      "bought": 3135,
      "push": 3136,
      "treatment": 3137,
      "##ball": 3138,
      "court": 3139,
      "Goo": 3140,
      "##oles": 3141,
      "ear": 3142,
      "##ky": 3143,
      "##amb": 3144,
      "Paris": 3145,
      "absolutely": 3146,
      "Very": 3147,
      "message": 3148,
      "dinner": 3149,
      "lower": 3150,
      "ran": 3151,
      "Although": 3152,
      "80": 3153,
      "wide": 3154,
      "##ossible": 3155,
      "organization": 3156,
      "teacher": 3157,
      "stick": 3158,
      "##ran": 3159,
      "##aven": 3160,
      "studies": 3161,
      "pictures": 3162,
      "shape": 3163,
      "East": 3164,
      "harm": 3165,
      "While": 3166,
      "##ech": 3167,
      "current": 3168,
      "##cra": 3169,
      "##ma": 3170,
      "##ises": 3171,
      "Never": 3172,
      "link": 3173,
      "##key": 3174,
      "strugg": 3175,
      "lack": 3176,
      "affect": 3177,
      "##aff": 3178,
      "bigger": 3179,
      "audience": 3180,
      "King": 3181,
      "##aught": 3182,
      "practice": 3183,
      "transport": 3184,
      "Mc": 3185,
      "Over": 3186,
      "fa": 3187,
      "mention": 3188,
      "collect": 3189,
      "2009": 3190,
      "oppos": 3191,
      "##ulations": 3192,
      "biggest": 3193,
      "skin": 3194,
      "plants": 3195,
      "##rupt": 3196,
      "include": 3197,
      "dance": 3198,
      "bodies": 3199,
      "weap": 3200,
      "laws": 3201,
      "chemical": 3202,
      "crisis": 3203,
      "2006": 3204,
      "histor": 3205,
      "Part": 3206,
      "##book": 3207,
      "##ama": 3208,
      "standing": 3209,
      "doub": 3210,
      "da": 3211,
      "traditional": 3212,
      "bill": 3213,
      "somewhere": 3214,
      "shouldn": 3215,
      "believed": 3216,
      "Another": 3217,
      "solar": 3218,
      "radio": 3219,
      "site": 3220,
      "##ught": 3221,
      "University": 3222,
      "original": 3223,
      "journey": 3224,
      "Feb": 3225,
      "II": 3226,
      "loss": 3227,
      "##acc": 3228,
      "respect": 3229,
      "college": 3230,
      "passed": 3231,
      "fool": 3232,
      "goal": 3233,
      "##ruary": 3234,
      "neighbor": 3235,
      "February": 3236,
      "lif": 3237,
      "##apers": 3238,
      "AI": 3239,
      "##sh": 3240,
      "##oman": 3241,
      "##udd": 3242,
      "funny": 3243,
      "throw": 3244,
      "Google": 3245,
      "##cise": 3246,
      "sett": 3247,
      "watching": 3248,
      "Nob": 3249,
      "host": 3250,
      "decl": 3251,
      "##aur": 3252,
      "Em": 3253,
      "lie": 3254,
      "describ": 3255,
      "lines": 3256,
      "##iar": 3257,
      "stars": 3258,
      "##useum": 3259,
      "incredible": 3260,
      "##put": 3261,
      "summer": 3262,
      "impossible": 3263,
      "strange": 3264,
      "##ana": 3265,
      "buildings": 3266,
      "Americans": 3267,
      "individuals": 3268,
      "pressure": 3269,
      "vot": 3270,
      "##ees": 3271,
      "church": 3272,
      "191": 3273,
      "Nor": 3274,
      "paid": 3275,
      "rid": 3276,
      "waste": 3277,
      "command": 3278,
      "investig": 3279,
      "tree": 3280,
      "popular": 3281,
      "##ufact": 3282,
      "types": 3283,
      "George": 3284,
      "Ke": 3285,
      "weren": 3286,
      "##ein": 3287,
      "screen": 3288,
      "literally": 3289,
      "##ores": 3290,
      "adult": 3291,
      "income": 3292,
      "##cl": 3293,
      "##ta": 3294,
      "##iles": 3295,
      "##ables": 3296,
      "broad": 3297,
      "According": 3298,
      "dangerous": 3299,
      "bacter": 3300,
      "virt": 3301,
      "Ara": 3302,
      "map": 3303,
      "tour": 3304,
      "Union": 3305,
      "mathemat": 3306,
      "accident": 3307,
      "positive": 3308,
      "produced": 3309,
      "require": 3310,
      "Wait": 3311,
      "conversation": 3312,
      "Bar": 3313,
      "spir": 3314,
      "older": 3315,
      "opened": 3316,
      "wild": 3317,
      "instit": 3318,
      "##ification": 3319,
      "Music": 3320,
      "nuclear": 3321,
      "custom": 3322,
      "sustain": 3323,
      "grew": 3324,
      "##itness": 3325,
      "suggest": 3326,
      "plat": 3327,
      "speaking": 3328,
      "played": 3329,
      "##order": 3330,
      "board": 3331,
      "temper": 3332,
      "##inct": 3333,
      "transl": 3334,
      "2011": 3335,
      "cook": 3336,
      "drop": 3337,
      "continued": 3338,
      "##others": 3339,
      "Russian": 3340,
      "village": 3341,
      "##go": 3342,
      "seas": 3343,
      "Sov": 3344,
      "manufact": 3345,
      "har": 3346,
      "respond": 3347,
      "computers": 3348,
      "jump": 3349,
      "gold": 3350,
      "##ffic": 3351,
      "Cap": 3352,
      "##verty": 3353,
      "notice": 3354,
      "expert": 3355,
      "eth": 3356,
      "race": 3357,
      "poverty": 3358,
      "decisions": 3359,
      "##ricult": 3360,
      "hous": 3361,
      "content": 3362,
      "estim": 3363,
      "More": 3364,
      "2005": 3365,
      "Does": 3366,
      "##craft": 3367,
      "hang": 3368,
      "##phere": 3369,
      "putting": 3370,
      "medicine": 3371,
      "burn": 3372,
      "##edd": 3373,
      "ought": 3374,
      "adop": 3375,
      "glad": 3376,
      "walking": 3377,
      "##zz": 3378,
      "exec": 3379,
      "allows": 3380,
      "Dan": 3381,
      "price": 3382,
      "models": 3383,
      "swim": 3384,
      "base": 3385,
      "inj": 3386,
      "healthy": 3387,
      "levels": 3388,
      "prevent": 3389,
      "encou": 3390,
      "##eness": 3391,
      "Mars": 3392,
      "##iot": 3393,
      "##hold": 3394,
      "Which": 3395,
      "increased": 3396,
      "activity": 3397,
      "performance": 3398,
      "Could": 3399,
      "Sm": 3400,
      "Res": 3401,
      "fra": 3402,
      "king": 3403,
      "match": 3404,
      "comfort": 3405,
      "sky": 3406,
      "nor": 3407,
      "##hib": 3408,
      "##antic": 3409,
      "192": 3410,
      "larger": 3411,
      "female": 3412,
      "##king": 3413,
      "complic": 3414,
      "floor": 3415,
      "2012": 3416,
      "##riage": 3417,
      "expand": 3418,
      "organizations": 3419,
      "materials": 3420,
      "earlier": 3421,
      "nation": 3422,
      "yours": 3423,
      "##osing": 3424,
      "ended": 3425,
      "virus": 3426,
      "##iation": 3427,
      "taught": 3428,
      "##ms": 3429,
      "boat": 3430,
      "autom": 3431,
      "extremely": 3432,
      "Cong": 3433,
      "##yle": 3434,
      "projects": 3435,
      "immediately": 3436,
      "##atures": 3437,
      "addition": 3438,
      "El": 3439,
      "quiet": 3440,
      "phil": 3441,
      "freedom": 3442,
      "anal": 3443,
      "##aging": 3444,
      "starts": 3445,
      "window": 3446,
      "##elebr": 3447,
      "dim": 3448,
      "reb": 3449,
      "univers": 3450,
      "yesterday": 3451,
      "tired": 3452,
      "established": 3453,
      "cru": 3454,
      "##arter": 3455,
      "related": 3456,
      "member": 3457,
      "camera": 3458,
      "##ancy": 3459,
      "agree": 3460,
      "##phone": 3461,
      "returned": 3462,
      "forms": 3463,
      "visual": 3464,
      "##rad": 3465,
      "##set": 3466,
      "displ": 3467,
      "forgot": 3468,
      "TV": 3469,
      "store": 3470,
      "##amm": 3471,
      "finished": 3472,
      "Frank": 3473,
      "drugs": 3474,
      "faster": 3475,
      "closed": 3476,
      "cultural": 3477,
      "purpose": 3478,
      "##arden": 3479,
      "conscious": 3480,
      "darling": 3481,
      "##ping": 3482,
      "##adem": 3483,
      "shown": 3484,
      "disp": 3485,
      "pleas": 3486,
      "Bet": 3487,
      "Kore": 3488,
      "effects": 3489,
      "intelligence": 3490,
      "300": 3491,
      "range": 3492,
      "alg": 3493,
      "maintain": 3494,
      "Des": 3495,
      "anyway": 3496,
      "career": 3497,
      "Te": 3498,
      "celebr": 3499,
      "wealth": 3500,
      "resist": 3501,
      "refuge": 3502,
      "bag": 3503,
      "beat": 3504,
      "stopped": 3505,
      "##gy": 3506,
      "finding": 3507,
      "speech": 3508,
      "platform": 3509,
      "dress": 3510,
      "bal": 3511,
      "mir": 3512,
      "##oses": 3513,
      "directly": 3514,
      "soldiers": 3515,
      "sad": 3516,
      "##how": 3517,
      "Think": 3518,
      "newsp": 3519,
      "army": 3520,
      "commercial": 3521,
      "##fety": 3522,
      "##ches": 3523,
      "uses": 3524,
      "avoid": 3525,
      "trees": 3526,
      "effective": 3527,
      "honest": 3528,
      "Pres": 3529,
      "##bed": 3530,
      "integ": 3531,
      "International": 3532,
      "descri": 3533,
      "greater": 3534,
      "languages": 3535,
      "Soviet": 3536,
      "tells": 3537,
      "movie": 3538,
      "stren": 3539,
      "shut": 3540,
      "correct": 3541,
      "device": 3542,
      "date": 3543,
      "##iest": 3544,
      "unique": 3545,
      "2015": 3546,
      "mission": 3547,
      "##rate": 3548,
      "##like": 3549,
      "##gth": 3550,
      "Western": 3551,
      "crow": 3552,
      "##ault": 3553,
      "pieces": 3554,
      "##wood": 3555,
      "##antly": 3556,
      "connected": 3557,
      "den": 3558,
      "##anced": 3559,
      "webs": 3560,
      "ang": 3561,
      "lock": 3562,
      "decades": 3563,
      "relative": 3564,
      "condition": 3565,
      "card": 3566,
      "names": 3567,
      "##inated": 3568,
      "##iced": 3569,
      "##icles": 3570,
      "##eless": 3571,
      "join": 3572,
      "magn": 3573,
      "Rem": 3574,
      "huh": 3575,
      "aftern": 3576,
      "collabor": 3577,
      "##lled": 3578,
      "onto": 3579,
      "##iring": 3580,
      "##iling": 3581,
      "examples": 3582,
      "marry": 3583,
      "achieve": 3584,
      "##arian": 3585,
      "mostly": 3586,
      "till": 3587,
      "##ctions": 3588,
      "terrible": 3589,
      "ec": 3590,
      "##ids": 3591,
      "events": 3592,
      "frequ": 3593,
      "Dav": 3594,
      "strength": 3595,
      "president": 3596,
      "##ortunately": 3597,
      "objects": 3598,
      "Se": 3599,
      "fed": 3600,
      "mouth": 3601,
      "tick": 3602,
      "##olve": 3603,
      "contract": 3604,
      "##lands": 3605,
      "fighting": 3606,
      "becoming": 3607,
      "quant": 3608,
      "everywhere": 3609,
      "##vert": 3610,
      "flu": 3611,
      "costs": 3612,
      "necessary": 3613,
      "weight": 3614,
      "##iff": 3615,
      "prep": 3616,
      "sexual": 3617,
      "recognize": 3618,
      "rout": 3619,
      "expensive": 3620,
      "syn": 3621,
      "broken": 3622,
      "band": 3623,
      "rise": 3624,
      "##idents": 3625,
      "showing": 3626,
      "smaller": 3627,
      "afford": 3628,
      "suddenly": 3629,
      "##cies": 3630,
      "##itation": 3631,
      "##rel": 3632,
      "willing": 3633,
      "machines": 3634,
      "Ed": 3635,
      "##ooper": 3636,
      "urban": 3637,
      "blind": 3638,
      "driving": 3639,
      "fing": 3640,
      "recent": 3641,
      "caused": 3642,
      "incredibly": 3643,
      "fundamental": 3644,
      "##itor": 3645,
      "##sec": 3646,
      "##ulated": 3647,
      "easily": 3648,
      "Pal": 3649,
      "##istics": 3650,
      "arrived": 3651,
      "afternoon": 3652,
      "Mal": 3653,
      "rare": 3654,
      "##rael": 3655,
      "agricult": 3656,
      "acqu": 3657,
      "2014": 3658,
      "Russia": 3659,
      "democracy": 3660,
      "mix": 3661,
      "##itude": 3662,
      "wear": 3663,
      "trick": 3664,
      "instance": 3665,
      "Hel": 3666,
      "##aign": 3667,
      "##SA": 3668,
      "consequ": 3669,
      "whose": 3670,
      "majority": 3671,
      "Tur": 3672,
      "##wise": 3673,
      "points": 3674,
      "conduct": 3675,
      "##ittee": 3676,
      "flight": 3677,
      "Gree": 3678,
      "ren": 3679,
      "##ico": 3680,
      "compl": 3681,
      "Israel": 3682,
      "caught": 3683,
      "Father": 3684,
      "smell": 3685,
      "crime": 3686,
      "assist": 3687,
      "reduce": 3688,
      "ign": 3689,
      "mental": 3690,
      "Great": 3691,
      "governments": 3692,
      "00": 3693,
      "List": 3694,
      "Med": 3695,
      "fuel": 3696,
      "gal": 3697,
      "##ension": 3698,
      "remind": 3699,
      "England": 3700,
      "environmental": 3701,
      "indic": 3702,
      "industrial": 3703,
      "Min": 3704,
      "religious": 3705,
      "90": 3706,
      "##ager": 3707,
      "cloud": 3708,
      "vision": 3709,
      "Arab": 3710,
      "Mex": 3711,
      "dy": 3712,
      "##reg": 3713,
      "context": 3714,
      "central": 3715,
      "doctors": 3716,
      "busy": 3717,
      "television": 3718,
      "##lies": 3719,
      "bridge": 3720,
      "politics": 3721,
      "perm": 3722,
      "brains": 3723,
      "shared": 3724,
      "Ken": 3725,
      "followed": 3726,
      "70": 3727,
      "##ips": 3728,
      "gather": 3729,
      "truly": 3730,
      "teachers": 3731,
      "forced": 3732,
      "shop": 3733,
      "Nobody": 3734,
      "institutions": 3735,
      "ban": 3736,
      "cand": 3737,
      "##osphere": 3738,
      "##vey": 3739,
      "stress": 3740,
      "##road": 3741,
      "##vere": 3742,
      "spot": 3743,
      "fully": 3744,
      "decide": 3745,
      "##isc": 3746,
      "demonst": 3747,
      "Musl": 3748,
      "ox": 3749,
      "veh": 3750,
      "attract": 3751,
      "2013": 3752,
      "regard": 3753,
      "leading": 3754,
      "values": 3755,
      "##ino": 3756,
      "opin": 3757,
      "listening": 3758,
      "limited": 3759,
      "journal": 3760,
      "hun": 3761,
      "libr": 3762,
      "excited": 3763,
      "hotel": 3764,
      "Dep": 3765,
      "Each": 3766,
      "Mor": 3767,
      "male": 3768,
      "Everything": 3769,
      "clin": 3770,
      "recover": 3771,
      "greatest": 3772,
      "currently": 3773,
      "challenges": 3774,
      "responsible": 3775,
      "fat": 3776,
      "river": 3777,
      "##acity": 3778,
      "programs": 3779,
      "##rep": 3780,
      "expected": 3781,
      "trip": 3782,
      "##irt": 3783,
      "clim": 3784,
      "slight": 3785,
      "required": 3786,
      "Other": 3787,
      "fol": 3788,
      "surround": 3789,
      "brand": 3790,
      "Mad": 3791,
      "implement": 3792,
      "solutions": 3793,
      "Lu": 3794,
      "refer": 3795,
      "liber": 3796,
      "thanks": 3797,
      "promise": 3798,
      "kil": 3799,
      "suit": 3800,
      "indeed": 3801,
      "favorite": 3802,
      "eating": 3803,
      "##ears": 3804,
      "23": 3805,
      "##ession": 3806,
      "clock": 3807,
      "below": 3808,
      "campaign": 3809,
      "okay": 3810,
      "##bye": 3811,
      "22": 3812,
      "bri": 3813,
      "rule": 3814,
      "##anna": 3815,
      "apply": 3816,
      "lucky": 3817,
      "##isms": 3818,
      "Perhaps": 3819,
      "clothes": 3820,
      "crimin": 3821,
      "page": 3822,
      "engage": 3823,
      "rapid": 3824,
      "reve": 3825,
      "safety": 3826,
      "Indian": 3827,
      "crowd": 3828,
      "letters": 3829,
      "apart": 3830,
      "none": 3831,
      "spect": 3832,
      "painting": 3833,
      "exciting": 3834,
      "tough": 3835,
      "##rom": 3836,
      "##ysis": 3837,
      "Ser": 3838,
      "fort": 3839,
      "atm": 3840,
      "release": 3841,
      "Red": 3842,
      "ens": 3843,
      "useful": 3844,
      "skills": 3845,
      "reflect": 3846,
      "##lin": 3847,
      "whom": 3848,
      "gentlemen": 3849,
      "##irty": 3850,
      "square": 3851,
      "extraord": 3852,
      "Paul": 3853,
      "##now": 3854,
      "General": 3855,
      "##50": 3856,
      "remark": 3857,
      "##ervation": 3858,
      "##ratic": 3859,
      "hasn": 3860,
      "anywhere": 3861,
      "witness": 3862,
      "justice": 3863,
      "influence": 3864,
      "Republic": 3865,
      "failed": 3866,
      "repe": 3867,
      "marriage": 3868,
      "philos": 3869,
      "dram": 3870,
      "actual": 3871,
      "Mon": 3872,
      "fit": 3873,
      "##ae": 3874,
      "forest": 3875,
      "therefore": 3876,
      "twice": 3877,
      "sym": 3878,
      "##ios": 3879,
      "happiness": 3880,
      "easier": 3881,
      "mer": 3882,
      "wood": 3883,
      "##icide": 3884,
      "##iving": 3885,
      "highly": 3886,
      "faith": 3887,
      "bacteria": 3888,
      "Their": 3889,
      "worried": 3890,
      "missing": 3891,
      "identity": 3892,
      "yell": 3893,
      "stre": 3894,
      "2000": 3895,
      "charge": 3896,
      "Gl": 3897,
      "egg": 3898,
      "##val": 3899,
      "##ologists": 3900,
      "Ange": 3901,
      "totally": 3902,
      "colleag": 3903,
      "About": 3904,
      "innovation": 3905,
      "multiple": 3906,
      "Ne": 3907,
      "sam": 3908,
      "web": 3909,
      "contact": 3910,
      "concern": 3911,
      "Listen": 3912,
      "nut": 3913,
      "symb": 3914,
      "connection": 3915,
      "Second": 3916,
      "pan": 3917,
      "sand": 3918,
      "generally": 3919,
      "##omp": 3920,
      "reform": 3921,
      "former": 3922,
      "##iforn": 3923,
      "##ocol": 3924,
      "diagn": 3925,
      "experiences": 3926,
      "##pective": 3927,
      "enem": 3928,
      "famous": 3929,
      "Californ": 3930,
      "State": 3931,
      "##ara": 3932,
      "humanity": 3933,
      "matters": 3934,
      "seemed": 3935,
      "critical": 3936,
      "battle": 3937,
      "rough": 3938,
      "##ya": 3939,
      "weather": 3940,
      "##erson": 3941,
      "Army": 3942,
      "massive": 3943,
      "San": 3944,
      "tro": 3945,
      "##uing": 3946,
      "##atically": 3947,
      "##semb": 3948,
      "sequ": 3949,
      "contain": 3950,
      "2004": 3951,
      "creative": 3952,
      "lawy": 3953,
      "direction": 3954,
      "terror": 3955,
      "Australia": 3956,
      "##orith": 3957,
      "##urg": 3958,
      "Swed": 3959,
      "north": 3960,
      "Phil": 3961,
      ".,": 3962,
      "##ius": 3963,
      "##igar": 3964,
      "Air": 3965,
      "Sam": 3966,
      "Stop": 3967,
      "walked": 3968,
      "complicated": 3969,
      "thr": 3970,
      "##asion": 3971,
      "whe": 3972,
      "Sometimes": 3973,
      "cred": 3974,
      "##ipped": 3975,
      "feels": 3976,
      "##upid": 3977,
      "causes": 3978,
      "responsibility": 3979,
      "Ah": 3980,
      "tast": 3981,
      "##ties": 3982,
      "hall": 3983,
      "##ume": 3984,
      "diseases": 3985,
      "raise": 3986,
      "Bill": 3987,
      "shock": 3988,
      "studying": 3989,
      "electricity": 3990,
      "Mart": 3991,
      "##yl": 3992,
      "Three": 3993,
      "compon": 3994,
      "calc": 3995,
      "susp": 3996,
      "bomb": 3997,
      "neighborhood": 3998,
      "##cks": 3999,
      "##agine": 4000,
      "express": 4001,
      "supply": 4002,
      "fasc": 4003,
      "##uries": 4004,
      "Ste": 4005,
      "mal": 4006,
      "colon": 4007,
      "aid": 4008,
      "pun": 4009,
      "Once": 4010,
      "relationships": 4011,
      "gender": 4012,
      "spirit": 4013,
      "California": 4014,
      "##IN": 4015,
      "introduced": 4016,
      "##inc": 4017,
      "worst": 4018,
      "frame": 4019,
      "elements": 4020,
      "included": 4021,
      "genetic": 4022,
      "perspective": 4023,
      "algorith": 4024,
      "concent": 4025,
      "active": 4026,
      "independent": 4027,
      "Canada": 4028,
      "Pet": 4029,
      "subst": 4030,
      "detect": 4031,
      "Instead": 4032,
      "fellow": 4033,
      "Keep": 4034,
      "HI": 4035,
      "task": 4036,
      "##lam": 4037,
      "##atell": 4038,
      "robots": 4039,
      "activities": 4040,
      "26": 4041,
      "Say": 4042,
      "bound": 4043,
      "exch": 4044,
      "##load": 4045,
      "27": 4046,
      "ancient": 4047,
      "university": 4048,
      "President": 4049,
      "##athy": 4050,
      "effort": 4051,
      "horse": 4052,
      "pal": 4053,
      "zero": 4054,
      "##roud": 4055,
      "Comp": 4056,
      "essentially": 4057,
      "##of": 4058,
      "devices": 4059,
      "entirely": 4060,
      "religion": 4061,
      "lunch": 4062,
      "beauty": 4063,
      "double": 4064,
      "destroyed": 4065,
      "heat": 4066,
      "knowing": 4067,
      "coast": 4068,
      "election": 4069,
      "construction": 4070,
      "Joe": 4071,
      "Before": 4072,
      "arms": 4073,
      "broke": 4074,
      "round": 4075,
      "##assion": 4076,
      "belief": 4077,
      "interview": 4078,
      "Put": 4079,
      "capacity": 4080,
      "passion": 4081,
      "Christian": 4082,
      "roll": 4083,
      "heavy": 4084,
      "shap": 4085,
      "Ital": 4086,
      "mistake": 4087,
      "optim": 4088,
      "symbol": 4089,
      "bull": 4090,
      "Span": 4091,
      "Co": 4092,
      "ir": 4093,
      "understood": 4094,
      "basis": 4095,
      "separate": 4096,
      "sweet": 4097,
      "pray": 4098,
      "possibly": 4099,
      "##ructure": 4100,
      "distance": 4101,
      "##gypt": 4102,
      "Egypt": 4103,
      "##wide": 4104,
      "amb": 4105,
      "##uty": 4106,
      "calling": 4107,
      "genes": 4108,
      "plane": 4109,
      "website": 4110,
      "mut": 4111,
      "##cience": 4112,
      "Hi": 4113,
      "graph": 4114,
      "##ening": 4115,
      "damage": 4116,
      "Mother": 4117,
      "##ux": 4118,
      "beings": 4119,
      "Captain": 4120,
      "##lied": 4121,
      "##bes": 4122,
      "beg": 4123,
      "##ulf": 4124,
      "ring": 4125,
      "##vent": 4126,
      "added": 4127,
      "patterns": 4128,
      "Imagine": 4129,
      "streets": 4130,
      "hung": 4131,
      "advant": 4132,
      "reached": 4133,
      "flying": 4134,
      "analy": 4135,
      "##pping": 4136,
      "formed": 4137,
      "switch": 4138,
      "##iament": 4139,
      "weapons": 4140,
      "bunch": 4141,
      "honey": 4142,
      "jail": 4143,
      "##ray": 4144,
      "altern": 4145,
      "Che": 4146,
      "aware": 4147,
      "communication": 4148,
      "Face": 4149,
      "proud": 4150,
      "##vest": 4151,
      "stock": 4152,
      "##osy": 4153,
      "##ronic": 4154,
      "occup": 4155,
      "lad": 4156,
      "novel": 4157,
      "provided": 4158,
      "prior": 4159,
      "architecture": 4160,
      "mobile": 4161,
      "partners": 4162,
      "argum": 4163,
      "galax": 4164,
      "vacc": 4165,
      "users": 4166,
      "prefer": 4167,
      "clearly": 4168,
      "Sim": 4169,
      "bud": 4170,
      "tit": 4171,
      "club": 4172,
      "signal": 4173,
      "construct": 4174,
      "satell": 4175,
      "##rim": 4176,
      "saving": 4177,
      "phen": 4178,
      "according": 4179,
      "closer": 4180,
      "counter": 4181,
      "High": 4182,
      "wearing": 4183,
      "anti": 4184,
      "described": 4185,
      "weak": 4186,
      "instrum": 4187,
      "physics": 4188,
      "magic": 4189,
      "Iran": 4190,
      "homes": 4191,
      "rand": 4192,
      "tall": 4193,
      "aspect": 4194,
      "plans": 4195,
      "consist": 4196,
      "planning": 4197,
      "seconds": 4198,
      "extraordinary": 4199,
      "##oned": 4200,
      "despite": 4201,
      "Islam": 4202,
      "collective": 4203,
      "infrast": 4204,
      "competition": 4205,
      "Washing": 4206,
      "Mo": 4207,
      "vast": 4208,
      "190": 4209,
      "##ube": 4210,
      "2003": 4211,
      "hearing": 4212,
      "critic": 4213,
      "reveal": 4214,
      "south": 4215,
      "vote": 4216,
      "signed": 4217,
      "folks": 4218,
      "kiss": 4219,
      "##cell": 4220,
      "somehow": 4221,
      "Street": 4222,
      "Asia": 4223,
      "hat": 4224,
      "master": 4225,
      "##equ": 4226,
      "finish": 4227,
      "##idden": 4228,
      "investment": 4229,
      "Something": 4230,
      "oxy": 4231,
      "chair": 4232,
      "plastic": 4233,
      "calls": 4234,
      "helping": 4235,
      "survive": 4236,
      "..": 4237,
      "cart": 4238,
      "sight": 4239,
      "vul": 4240,
      "##AT": 4241,
      "partner": 4242,
      "holding": 4243,
      "document": 4244,
      "Washington": 4245,
      "Je": 4246,
      "fif": 4247,
      "museum": 4248,
      "##erved": 4249,
      "##rap": 4250,
      "remained": 4251,
      "minds": 4252,
      "exer": 4253,
      "##place": 4254,
      "Cor": 4255,
      "##isl": 4256,
      "##urally": 4257,
      "##rene": 4258,
      "emotional": 4259,
      "obviously": 4260,
      "28": 4261,
      "suc": 4262,
      "appre": 4263,
      "focused": 4264,
      "agreed": 4265,
      "ver": 4266,
      "##omed": 4267,
      "forever": 4268,
      "unless": 4269,
      "gotta": 4270,
      "studied": 4271,
      "accur": 4272,
      "teaching": 4273,
      "Art": 4274,
      "magaz": 4275,
      "cooper": 4276,
      "tun": 4277,
      "##ER": 4278,
      "##back": 4279,
      "##nds": 4280,
      "simpl": 4281,
      "surprise": 4282,
      "management": 4283,
      "estimated": 4284,
      "400": 4285,
      "bright": 4286,
      "##oved": 4287,
      "lights": 4288,
      "##ashion": 4289,
      "gradu": 4290,
      "Coun": 4291,
      "fant": 4292,
      "hadn": 4293,
      "requires": 4294,
      "societ": 4295,
      "##ography": 4296,
      "associated": 4297,
      "succeed": 4298,
      "Dad": 4299,
      "pet": 4300,
      "background": 4301,
      "scared": 4302,
      "Isn": 4303,
      "trial": 4304,
      "motiv": 4305,
      "restaur": 4306,
      "failure": 4307,
      "familiar": 4308,
      "soul": 4309,
      "Spanish": 4310,
      "Bel": 4311,
      "pu": 4312,
      "##ald": 4313,
      "decade": 4314,
      "transm": 4315,
      "raised": 4316,
      "##force": 4317,
      "disappear": 4318,
      "David": 4319,
      "##illy": 4320,
      "##ago": 4321,
      "leaves": 4322,
      "Bank": 4323,
      "bear": 4324,
      "storm": 4325,
      "##anted": 4326,
      "HIV": 4327,
      "phenomen": 4328,
      "Hum": 4329,
      "hide": 4330,
      "##rees": 4331,
      "habit": 4332,
      "##aint": 4333,
      "enorm": 4334,
      "professional": 4335,
      "moral": 4336,
      "philosoph": 4337,
      "Op": 4338,
      "##ien": 4339,
      "##ems": 4340,
      "Port": 4341,
      "##ancing": 4342,
      "##izes": 4343,
      "Charl": 4344,
      "degree": 4345,
      "launched": 4346,
      "random": 4347,
      "managed": 4348,
      "##ception": 4349,
      "Johnny": 4350,
      "corner": 4351,
      "season": 4352,
      "cast": 4353,
      "artist": 4354,
      "biological": 4355,
      "hole": 4356,
      "fresh": 4357,
      "truck": 4358,
      "Char": 4359,
      "flag": 4360,
      "moon": 4361,
      "atmosphere": 4362,
      "lic": 4363,
      "##house": 4364,
      "noticed": 4365,
      "ends": 4366,
      "planets": 4367,
      "biology": 4368,
      "networks": 4369,
      "##otyp": 4370,
      "helps": 4371,
      "aircraft": 4372,
      "status": 4373,
      "garden": 4374,
      "obvious": 4375,
      "bath": 4376,
      "odd": 4377,
      "##encies": 4378,
      "##itter": 4379,
      "stated": 4380,
      "Atl": 4381,
      "Rev": 4382,
      "strategy": 4383,
      "infrastructure": 4384,
      "CO": 4385,
      "dying": 4386,
      "##mar": 4387,
      "##uten": 4388,
      "stupid": 4389,
      "shoes": 4390,
      "appoint": 4391,
      "##ength": 4392,
      "Bu": 4393,
      "##af": 4394,
      "features": 4395,
      "researchers": 4396,
      "previous": 4397,
      "Remember": 4398,
      "Cour": 4399,
      "dad": 4400,
      "##ette": 4401,
      "spaces": 4402,
      "gar": 4403,
      "##owers": 4404,
      "##iger": 4405,
      "traffic": 4406,
      "sorts": 4407,
      "Everybody": 4408,
      "##board": 4409,
      "negative": 4410,
      "##zen": 4411,
      "##anda": 4412,
      "bringing": 4413,
      "rail": 4414,
      "serve": 4415,
      "protection": 4416,
      "engineering": 4417,
      "sources": 4418,
      "replace": 4419,
      "Braz": 4420,
      "Both": 4421,
      "##ked": 4422,
      "prove": 4423,
      "structures": 4424,
      "property": 4425,
      "Facebook": 4426,
      "Sun": 4427,
      "Sorry": 4428,
      "##osqu": 4429,
      "founded": 4430,
      "temperature": 4431,
      "Pri": 4432,
      "##inating": 4433,
      "forth": 4434,
      "grown": 4435,
      "markets": 4436,
      "legs": 4437,
      "figured": 4438,
      "appreci": 4439,
      "Ber": 4440,
      "Jer": 4441,
      "##itz": 4442,
      "##ica": 4443,
      "##ria": 4444,
      "highest": 4445,
      "dreams": 4446,
      "Mac": 4447,
      "core": 4448,
      "cigar": 4449,
      "roo": 4450,
      "##bing": 4451,
      "##rian": 4452,
      "compassion": 4453,
      "parties": 4454,
      "vulner": 4455,
      "Sing": 4456,
      "##mark": 4457,
      "##urance": 4458,
      "wash": 4459,
      "dynam": 4460,
      "yeah": 4461,
      "ther": 4462,
      "sharing": 4463,
      "equal": 4464,
      "joined": 4465,
      "filled": 4466,
      "Brazil": 4467,
      "border": 4468,
      "firm": 4469,
      "island": 4470,
      "empt": 4471,
      "recomm": 4472,
      "perfectly": 4473,
      "analysis": 4474,
      "##igrants": 4475,
      "Rome": 4476,
      "reject": 4477,
      "seat": 4478,
      "##ils": 4479,
      "hero": 4480,
      "remains": 4481,
      "doubt": 4482,
      "Lord": 4483,
      "##lus": 4484,
      "feelings": 4485,
      "dollar": 4486,
      "daily": 4487,
      "##lcome": 4488,
      "scene": 4489,
      "receive": 4490,
      "Dem": 4491,
      "Ira": 4492,
      "fashion": 4493,
      "joy": 4494,
      "operating": 4495,
      "escape": 4496,
      "angry": 4497,
      "budget": 4498,
      "##alt": 4499,
      "stuck": 4500,
      "Italy": 4501,
      "served": 4502,
      "surg": 4503,
      "babies": 4504,
      "benefits": 4505,
      "birds": 4506,
      "Italian": 4507,
      "Mich": 4508,
      "Pat": 4509,
      "##ij": 4510,
      "picked": 4511,
      "walls": 4512,
      "Jim": 4513,
      "##itute": 4514,
      "##rog": 4515,
      "killing": 4516,
      "limit": 4517,
      "35": 4518,
      "Four": 4519,
      "tail": 4520,
      "choices": 4521,
      "##igned": 4522,
      "Govern": 4523,
      "turning": 4524,
      "ride": 4525,
      "tiss": 4526,
      "##lex": 4527,
      "opinion": 4528,
      "papers": 4529,
      "uh": 4530,
      "wake": 4531,
      "##aves": 4532,
      "##ugg": 4533,
      "blow": 4534,
      "Exc": 4535,
      "ultimately": 4536,
      "bother": 4537,
      "##nel": 4538,
      "warm": 4539,
      "suffering": 4540,
      "Council": 4541,
      "anx": 4542,
      "##estic": 4543,
      "regular": 4544,
      "operation": 4545,
      "Jewish": 4546,
      "##iled": 4547,
      "##unte": 4548,
      "##aker": 4549,
      "et": 4550,
      "##inal": 4551,
      "capable": 4552,
      "drunk": 4553,
      "House": 4554,
      "hyp": 4555,
      "wound": 4556,
      "##anch": 4557,
      "arrested": 4558,
      "##oted": 4559,
      "email": 4560,
      "leader": 4561,
      "Afgh": 4562,
      "experiments": 4563,
      "Party": 4564,
      "Mexico": 4565,
      "Under": 4566,
      "noise": 4567,
      "supported": 4568,
      "##sect": 4569,
      "shift": 4570,
      "##ander": 4571,
      "flo": 4572,
      "equip": 4573,
      "##fast": 4574,
      "affected": 4575,
      "approx": 4576,
      "opportunities": 4577,
      "surprised": 4578,
      "breath": 4579,
      "invent": 4580,
      "experienced": 4581,
      "Bo": 4582,
      "boss": 4583,
      "opposite": 4584,
      "display": 4585,
      "differences": 4586,
      "cheap": 4587,
      "Const": 4588,
      "emotions": 4589,
      "mountain": 4590,
      "pleasure": 4591,
      "Lat": 4592,
      "staff": 4593,
      "##cip": 4594,
      "additional": 4595,
      "territ": 4596,
      "communicate": 4597,
      "##vant": 4598,
      "##esides": 4599,
      "##omy": 4600,
      "electr": 4601,
      "identify": 4602,
      "Iraq": 4603,
      "nations": 4604,
      "sector": 4605,
      "careful": 4606,
      "vac": 4607,
      "##isher": 4608,
      "##istry": 4609,
      "compared": 4610,
      "interp": 4611,
      "install": 4612,
      "hyd": 4613,
      "cow": 4614,
      "likes": 4615,
      "particles": 4616,
      "possibility": 4617,
      "concerned": 4618,
      "primary": 4619,
      "rat": 4620,
      "rot": 4621,
      "propos": 4622,
      "45": 4623,
      "conference": 4624,
      "##umber": 4625,
      "##itely": 4626,
      "artists": 4627,
      "landsc": 4628,
      "answers": 4629,
      "satis": 4630,
      "Congress": 4631,
      "colleagues": 4632,
      "mosqu": 4633,
      "select": 4634,
      "user": 4635,
      "carried": 4636,
      "handle": 4637,
      "corpor": 4638,
      "Grand": 4639,
      "##utenant": 4640,
      "Afghan": 4641,
      "pig": 4642,
      "##akers": 4643,
      "herself": 4644,
      "differently": 4645,
      "player": 4646,
      "circum": 4647,
      "criminal": 4648,
      "Wind": 4649,
      "standards": 4650,
      "dimens": 4651,
      "oxygen": 4652,
      "Lou": 4653,
      "knock": 4654,
      "begins": 4655,
      "##ervous": 4656,
      "dry": 4657,
      "rates": 4658,
      "academ": 4659,
      "lovely": 4660,
      "keeping": 4661,
      "location": 4662,
      "deeply": 4663,
      "existing": 4664,
      "Department": 4665,
      "slightly": 4666,
      "Park": 4667,
      "tow": 4668,
      "heaven": 4669,
      "establish": 4670,
      "##cles": 4671,
      "suicide": 4672,
      "steps": 4673,
      "honor": 4674,
      "Black": 4675,
      "cycle": 4676,
      "victims": 4677,
      "adults": 4678,
      "ble": 4679,
      "##ulous": 4680,
      "actions": 4681,
      "library": 4682,
      "Wil": 4683,
      "bell": 4684,
      "shel": 4685,
      "20th": 4686,
      "officer": 4687,
      "leadership": 4688,
      "trem": 4689,
      "##cket": 4690,
      "thinks": 4691,
      "advice": 4692,
      "review": 4693,
      "benefit": 4694,
      "gain": 4695,
      "##IS": 4696,
      "isol": 4697,
      "liqu": 4698,
      "##egal": 4699,
      "applications": 4700,
      "##reprene": 4701,
      "##onel": 4702,
      "lift": 4703,
      "desert": 4704,
      "legisl": 4705,
      "reports": 4706,
      "attacks": 4707,
      "copy": 4708,
      "equipment": 4709,
      "##hol": 4710,
      "tea": 4711,
      "adapt": 4712,
      "transfer": 4713,
      "Britain": 4714,
      "methods": 4715,
      "Excuse": 4716,
      "Rich": 4717,
      "aim": 4718,
      "nervous": 4719,
      "und": 4720,
      "commit": 4721,
      "completed": 4722,
      "Also": 4723,
      "apartment": 4724,
      "telephone": 4725,
      "ships": 4726,
      "farmers": 4727,
      "societies": 4728,
      "Court": 4729,
      "Big": 4730,
      "Middle": 4731,
      "cab": 4732,
      "##off": 4733,
      "##stairs": 4734,
      "##ending": 4735,
      "##ruption": 4736,
      "losing": 4737,
      "##uc": 4738,
      "##ients": 4739,
      "champ": 4740,
      "pregn": 4741,
      "technical": 4742,
      "explore": 4743,
      "profit": 4744,
      "treated": 4745,
      "inspired": 4746,
      "degrees": 4747,
      "astron": 4748,
      "fal": 4749,
      "##icip": 4750,
      "minim": 4751,
      "mentioned": 4752,
      "brief": 4753,
      "\",": 4754,
      "2001": 4755,
      "volunte": 4756,
      "necessarily": 4757,
      "covered": 4758,
      "describe": 4759,
      "Max": 4760,
      "mort": 4761,
      "orders": 4762,
      "Hold": 4763,
      "##iable": 4764,
      "##mas": 4765,
      "desk": 4766,
      "internal": 4767,
      "efficient": 4768,
      "##eds": 4769,
      "##arters": 4770,
      "load": 4771,
      "awful": 4772,
      "slowly": 4773,
      "enormous": 4774,
      "diversity": 4775,
      "faces": 4776,
      "##etry": 4777,
      "lies": 4778,
      "perman": 4779,
      "saved": 4780,
      "scen": 4781,
      "2016": 4782,
      "neurons": 4783,
      "molecules": 4784,
      "##igration": 4785,
      "invited": 4786,
      "regions": 4787,
      "hungry": 4788,
      "Cr": 4789,
      "san": 4790,
      "##me": 4791,
      "god": 4792,
      "##elling": 4793,
      "##ibilities": 4794,
      "businesses": 4795,
      "spending": 4796,
      "fright": 4797,
      "pil": 4798,
      "reward": 4799,
      "units": 4800,
      "entreprene": 4801,
      "snow": 4802,
      "definition": 4803,
      "yellow": 4804,
      "Hur": 4805,
      "lying": 4806,
      "wire": 4807,
      "##oly": 4808,
      "spoke": 4809,
      "advantage": 4810,
      "fourth": 4811,
      "Video": 4812,
      "pure": 4813,
      "Inter": 4814,
      "facts": 4815,
      "organized": 4816,
      "accepted": 4817,
      "remarkable": 4818,
      "kitch": 4819,
      "narr": 4820,
      "wanna": 4821,
      "##esc": 4822,
      "houses": 4823,
      "##hy": 4824,
      "severe": 4825,
      "plenty": 4826,
      "policies": 4827,
      "administ": 4828,
      "surprising": 4829,
      "Count": 4830,
      "Green": 4831,
      "Sl": 4832,
      "Sat": 4833,
      "##cest": 4834,
      "##water": 4835,
      "toward": 4836,
      "teen": 4837,
      "employees": 4838,
      "empty": 4839,
      "Up": 4840,
      "##gent": 4841,
      "##here": 4842,
      "##isters": 4843,
      "brings": 4844,
      "Jews": 4845,
      "31": 4846,
      "Cont": 4847,
      "Sund": 4848,
      "Chic": 4849,
      "factors": 4850,
      "setting": 4851,
      "principles": 4852,
      "##sing": 4853,
      "evolved": 4854,
      "creation": 4855,
      "milk": 4856,
      "occurred": 4857,
      "ded": 4858,
      "note": 4859,
      "##osh": 4860,
      "unp": 4861,
      "worldwide": 4862,
      "##ologist": 4863,
      "creates": 4864,
      "hurry": 4865,
      "giant": 4866,
      "##ildren": 4867,
      "players": 4868,
      "minor": 4869,
      "negot": 4870,
      "sustainable": 4871,
      "Day": 4872,
      "duty": 4873,
      "pair": 4874,
      "rural": 4875,
      "##ford": 4876,
      "##erves": 4877,
      "##ares": 4878,
      "##emic": 4879,
      "##aph": 4880,
      "##ague": 4881,
      "uns": 4882,
      "gotten": 4883,
      "desire": 4884,
      "depression": 4885,
      "Open": 4886,
      "##DS": 4887,
      "##AR": 4888,
      "harder": 4889,
      "processes": 4890,
      "testing": 4891,
      "existence": 4892,
      "motion": 4893,
      "consequences": 4894,
      "nav": 4895,
      "beach": 4896,
      "ancest": 4897,
      "trained": 4898,
      "efforts": 4899,
      "winter": 4900,
      "debate": 4901,
      "comfortable": 4902,
      "Chicago": 4903,
      "Ac": 4904,
      "goods": 4905,
      "2002": 4906,
      "invented": 4907,
      "restrict": 4908,
      "Goodbye": 4909,
      "stayed": 4910,
      "Spe": 4911,
      "breakfast": 4912,
      "illness": 4913,
      "therap": 4914,
      "Jud": 4915,
      "Los": 4916,
      "Roman": 4917,
      "tank": 4918,
      "##cast": 4919,
      "##rol": 4920,
      "flood": 4921,
      "Lie": 4922,
      "##uk": 4923,
      "unlike": 4924,
      "importance": 4925,
      "increasingly": 4926,
      "sales": 4927,
      "##een": 4928,
      "White": 4929,
      "placed": 4930,
      "gene": 4931,
      "horri": 4932,
      "variety": 4933,
      "Central": 4934,
      "federal": 4935,
      "exchange": 4936,
      "##nic": 4937,
      "style": 4938,
      "spl": 4939,
      "##issions": 4940,
      "funding": 4941,
      "convin": 4942,
      "29": 4943,
      "##inate": 4944,
      "##ingu": 4945,
      "Supp": 4946,
      "relatively": 4947,
      "Ob": 4948,
      "categ": 4949,
      "##night": 4950,
      "##iday": 4951,
      "meters": 4952,
      "defined": 4953,
      "Harry": 4954,
      "Five": 4955,
      "##DP": 4956,
      "contains": 4957,
      "element": 4958,
      "parad": 4959,
      "driver": 4960,
      "newspaper": 4961,
      "Aud": 4962,
      "##celer": 4963,
      "soil": 4964,
      "coal": 4965,
      "committed": 4966,
      "Chris": 4967,
      "bottle": 4968,
      "replaced": 4969,
      "selling": 4970,
      "kick": 4971,
      "##med": 4972,
      "##aria": 4973,
      "exhib": 4974,
      "chick": 4975,
      "spring": 4976,
      "##acters": 4977,
      "profound": 4978,
      "judge": 4979,
      "kilomet": 4980,
      "wine": 4981,
      "##ront": 4982,
      "##aked": 4983,
      "operations": 4984,
      "records": 4985,
      "Prof": 4986,
      "Commun": 4987,
      "struggle": 4988,
      "refugees": 4989,
      "Coll": 4990,
      "##rat": 4991,
      "##hab": 4992,
      "##aling": 4993,
      "movies": 4994,
      "dropped": 4995,
      "adopted": 4996,
      "Nations": 4997,
      "tons": 4998,
      "##nown": 4999,
      "##umn": 5000,
      "parent": 5001,
      "paint": 5002,
      "appeared": 5003,
      "agreement": 5004,
      "rein": 5005,
      "##ints": 5006,
      "characters": 5007,
      "paying": 5008,
      "flowers": 5009,
      "false": 5010,
      "32": 5011,
      "org": 5012,
      "centuries": 5013,
      "includes": 5014,
      "ordered": 5015,
      "magazine": 5016,
      "cup": 5017,
      "fold": 5018,
      "##yal": 5019,
      "meat": 5020,
      "##orders": 5021,
      "numer": 5022,
      "bread": 5023,
      "statement": 5024,
      "balance": 5025,
      "Rob": 5026,
      "##arant": 5027,
      "smok": 5028,
      "purs": 5029,
      "purch": 5030,
      "motor": 5031,
      "sympt": 5032,
      "surgery": 5033,
      "approximately": 5034,
      "stream": 5035,
      "imagination": 5036,
      "School": 5037,
      "kitchen": 5038,
      "75": 5039,
      "Hen": 5040,
      "Mil": 5041,
      "UN": 5042,
      "##alley": 5043,
      "##olves": 5044,
      "##rain": 5045,
      "sugar": 5046,
      "precise": 5047,
      "instruct": 5048,
      "creativity": 5049,
      "authority": 5050,
      "initial": 5051,
      "application": 5052,
      "Mark": 5053,
      "Rec": 5054,
      "length": 5055,
      "##illed": 5056,
      "##uls": 5057,
      "provides": 5058,
      "officers": 5059,
      "##icy": 5060,
      "##odes": 5061,
      "Franc": 5062,
      "facing": 5063,
      "wheel": 5064,
      "Last": 5065,
      "Sir": 5066,
      "thus": 5067,
      "##oration": 5068,
      "chann": 5069,
      "younger": 5070,
      "Muslim": 5071,
      "lawyer": 5072,
      "##osystem": 5073,
      "Out": 5074,
      "dial": 5075,
      "iron": 5076,
      "tal": 5077,
      "##bre": 5078,
      "##osc": 5079,
      "unk": 5080,
      "##acing": 5081,
      "collection": 5082,
      "crew": 5083,
      "typically": 5084,
      "watched": 5085,
      "encoura": 5086,
      "candid": 5087,
      "Cons": 5088,
      "Jack": 5089,
      "ce": 5090,
      "sen": 5091,
      "##fied": 5092,
      "##essed": 5093,
      "moments": 5094,
      "proposed": 5095,
      "Eas": 5096,
      "Has": 5097,
      "##essor": 5098,
      "constantly": 5099,
      "fields": 5100,
      "Center": 5101,
      "Bang": 5102,
      "era": 5103,
      "mamm": 5104,
      "Its": 5105,
      "##agers": 5106,
      "applied": 5107,
      "owned": 5108,
      "dogs": 5109,
      "enemy": 5110,
      "Micro": 5111,
      "hidden": 5112,
      "sides": 5113,
      "##dy": 5114,
      "##bles": 5115,
      "##onds": 5116,
      "signals": 5117,
      "Christmas": 5118,
      "offered": 5119,
      "batter": 5120,
      "##verse": 5121,
      "tradition": 5122,
      "recognized": 5123,
      "emotion": 5124,
      "##sembly": 5125,
      "NA": 5126,
      "##ushing": 5127,
      "seriously": 5128,
      "keeps": 5129,
      "roof": 5130,
      "##encing": 5131,
      "Health": 5132,
      "Everyone": 5133,
      "initi": 5134,
      "##itals": 5135,
      "youth": 5136,
      "##pper": 5137,
      "captain": 5138,
      "confirm": 5139,
      "drinking": 5140,
      "Bost": 5141,
      "Yet": 5142,
      "exists": 5143,
      "acceler": 5144,
      "opening": 5145,
      "150": 5146,
      "scientist": 5147,
      "Korea": 5148,
      "troops": 5149,
      "tel": 5150,
      "##uations": 5151,
      "inher": 5152,
      "insect": 5153,
      "liked": 5154,
      "seek": 5155,
      "19th": 5156,
      "sentence": 5157,
      "argue": 5158,
      "profession": 5159,
      "details": 5160,
      "Charles": 5161,
      "Make": 5162,
      "nose": 5163,
      "##uable": 5164,
      "##gment": 5165,
      "##gress": 5166,
      "quarter": 5167,
      "Ant": 5168,
      "UK": 5169,
      "cards": 5170,
      "##uses": 5171,
      "moves": 5172,
      "##olly": 5173,
      "airport": 5174,
      "fixed": 5175,
      "prepared": 5176,
      "Pak": 5177,
      "Ter": 5178,
      "nar": 5179,
      "tum": 5180,
      "##stand": 5181,
      "ash": 5182,
      "teeth": 5183,
      "importantly": 5184,
      "generations": 5185,
      "lesson": 5186,
      "typical": 5187,
      "##ropri": 5188,
      "##iques": 5189,
      "depends": 5190,
      "domestic": 5191,
      "pollution": 5192,
      "fantastic": 5193,
      "circumst": 5194,
      "Boston": 5195,
      "Boy": 5196,
      "Sit": 5197,
      "Web": 5198,
      "everyday": 5199,
      "phones": 5200,
      "wave": 5201,
      "##well": 5202,
      "##olic": 5203,
      "##ilty": 5204,
      "##ript": 5205,
      "otherwise": 5206,
      "invis": 5207,
      "grav": 5208,
      "engineers": 5209,
      "mathematics": 5210,
      "Research": 5211,
      "tremend": 5212,
      "fishing": 5213,
      "rank": 5214,
      "engaged": 5215,
      "ecosystem": 5216,
      "Charlie": 5217,
      "##cend": 5218,
      "Stud": 5219,
      "Doctor": 5220,
      "artific": 5221,
      "driven": 5222,
      "teams": 5223,
      "Tony": 5224,
      "lat": 5225,
      "rom": 5226,
      "ya": 5227,
      "##mother": 5228,
      "neither": 5229,
      "essential": 5230,
      "##IC": 5231,
      "carefully": 5232,
      "refused": 5233,
      "entered": 5234,
      "##porary": 5235,
      "Angeles": 5236,
      "##lusion": 5237,
      "flat": 5238,
      "encoun": 5239,
      "credit": 5240,
      "Fed": 5241,
      "Rober": 5242,
      "##utch": 5243,
      "##rogen": 5244,
      "diss": 5245,
      "risks": 5246,
      "Fred": 5247,
      "rul": 5248,
      "##rary": 5249,
      "##icated": 5250,
      "stood": 5251,
      "smoke": 5252,
      "childhood": 5253,
      "protein": 5254,
      "defend": 5255,
      "1998": 5256,
      "discovery": 5257,
      "authorities": 5258,
      "birthday": 5259,
      "##edding": 5260,
      "restaurant": 5261,
      "La": 5262,
      "##iano": 5263,
      "leads": 5264,
      "courage": 5265,
      "principle": 5266,
      "widely": 5267,
      "Francis": 5268,
      "Ha": 5269,
      "##lection": 5270,
      "appar": 5271,
      "##ords": 5272,
      "1999": 5273,
      "William": 5274,
      "Greek": 5275,
      "Afghanistan": 5276,
      "Pakistan": 5277,
      "Tex": 5278,
      "gri": 5279,
      "##fl": 5280,
      "##uous": 5281,
      "##orter": 5282,
      "resc": 5283,
      "elections": 5284,
      "crack": 5285,
      "guns": 5286,
      "lifet": 5287,
      "Despite": 5288,
      "pounds": 5289,
      "##den": 5290,
      "neck": 5291,
      "##ifying": 5292,
      "removed": 5293,
      "district": 5294,
      "Committee": 5295,
      "rapidly": 5296,
      "##ato": 5297,
      "goals": 5298,
      "alt": 5299,
      "adj": 5300,
      "##hips": 5301,
      "colors": 5302,
      "innoc": 5303,
      "intellect": 5304,
      "negoti": 5305,
      "theater": 5306,
      "insurance": 5307,
      "explan": 5308,
      "rooms": 5309,
      "##icient": 5310,
      "films": 5311,
      "edge": 5312,
      "songs": 5313,
      "Democ": 5314,
      "cash": 5315,
      "crop": 5316,
      "lung": 5317,
      "rub": 5318,
      "##ille": 5319,
      "myth": 5320,
      "planned": 5321,
      "largely": 5322,
      "embra": 5323,
      "carrying": 5324,
      "mere": 5325,
      "mail": 5326,
      "##xim": 5327,
      "intended": 5328,
      "evil": 5329,
      "airpl": 5330,
      "internet": 5331,
      "billions": 5332,
      "weird": 5333,
      "##ipl": 5334,
      "functions": 5335,
      "defense": 5336,
      "elected": 5337,
      "remaining": 5338,
      "distribution": 5339,
      "experts": 5340,
      "##ING": 5341,
      "gift": 5342,
      "reven": 5343,
      "unit": 5344,
      "Uncle": 5345,
      "visited": 5346,
      "tests": 5347,
      "officials": 5348,
      "consciousness": 5349,
      "600": 5350,
      "Pac": 5351,
      "##ania": 5352,
      "##asks": 5353,
      "##lym": 5354,
      "stim": 5355,
      "factory": 5356,
      "##resp": 5357,
      "valuable": 5358,
      "photo": 5359,
      "privile": 5360,
      "Again": 5361,
      "Ro": 5362,
      "cogn": 5363,
      "silly": 5364,
      "qual": 5365,
      "##acle": 5366,
      "sites": 5367,
      "advoc": 5368,
      "exercise": 5369,
      "Off": 5370,
      "##ola": 5371,
      "##gel": 5372,
      "loves": 5373,
      "blame": 5374,
      "##while": 5375,
      "System": 5376,
      "epid": 5377,
      "synth": 5378,
      "##osis": 5379,
      "scan": 5380,
      "article": 5381,
      "heads": 5382,
      "mainly": 5383,
      "survival": 5384,
      "conclud": 5385,
      "##time": 5386,
      "defe": 5387,
      "recorded": 5388,
      "prisoners": 5389,
      "finger": 5390,
      "Revolution": 5391,
      "hors": 5392,
      "##IT": 5393,
      "Through": 5394,
      "advert": 5395,
      "guilty": 5396,
      "2017": 5397,
      "##ternal": 5398,
      "quantum": 5399,
      "agriculture": 5400,
      "Gr": 5401,
      "Law": 5402,
      "ske": 5403,
      "aband": 5404,
      "brill": 5405,
      "subm": 5406,
      "##ographic": 5407,
      "waves": 5408,
      "ordinary": 5409,
      "alternative": 5410,
      "Times": 5411,
      "dish": 5412,
      "gall": 5413,
      "abuse": 5414,
      "remote": 5415,
      "producing": 5416,
      "controlled": 5417,
      "providing": 5418,
      "advance": 5419,
      "appears": 5420,
      "reaction": 5421,
      "encourage": 5422,
      "tissue": 5423,
      "Gal": 5424,
      "##friend": 5425,
      "##rete": 5426,
      "neut": 5427,
      "##aud": 5428,
      "talks": 5429,
      "guard": 5430,
      "institution": 5431,
      "eggs": 5432,
      "##iance": 5433,
      "department": 5434,
      "##retch": 5435,
      "causing": 5436,
      "originally": 5437,
      "initially": 5438,
      "introduce": 5439,
      "ladies": 5440,
      "##aters": 5441,
      "convention": 5442,
      "Lin": 5443,
      "fab": 5444,
      "##nie": 5445,
      "##essel": 5446,
      "##omic": 5447,
      "##olf": 5448,
      "##ulating": 5449,
      "poison": 5450,
      "solid": 5451,
      "hardly": 5452,
      "illegal": 5453,
      "unknown": 5454,
      "Ap": 5455,
      "ath": 5456,
      "cere": 5457,
      "Stand": 5458,
      "survey": 5459,
      "located": 5460,
      "Twitter": 5461,
      "Commission": 5462,
      "specifically": 5463,
      "virtual": 5464,
      "Que": 5465,
      "ut": 5466,
      "##pet": 5467,
      "prost": 5468,
      "script": 5469,
      "guarant": 5470,
      "transition": 5471,
      "movements": 5472,
      "promised": 5473,
      "capture": 5474,
      "forgotten": 5475,
      "landscape": 5476,
      "Lieutenant": 5477,
      "artificial": 5478,
      "bow": 5479,
      "##entally": 5480,
      "##aming": 5481,
      "thoughts": 5482,
      "presence": 5483,
      "equival": 5484,
      "taste": 5485,
      "##ompl": 5486,
      "proced": 5487,
      "register": 5488,
      "Spain": 5489,
      "complexity": 5490,
      "file": 5491,
      "vide": 5492,
      "##aks": 5493,
      "decre": 5494,
      "techniques": 5495,
      "runs": 5496,
      "allowing": 5497,
      "circle": 5498,
      "claimed": 5499,
      "captured": 5500,
      "Cur": 5501,
      "##nes": 5502,
      "##ita": 5503,
      "##aust": 5504,
      "attach": 5505,
      "schol": 5506,
      "Really": 5507,
      "admit": 5508,
      "Jes": 5509,
      "Mom": 5510,
      "dirty": 5511,
      "fault": 5512,
      "gay": 5513,
      "stable": 5514,
      "##imp": 5515,
      "brothers": 5516,
      "explos": 5517,
      "advanced": 5518,
      "deeper": 5519,
      "sending": 5520,
      "Lea": 5521,
      "Women": 5522,
      "iP": 5523,
      "##itable": 5524,
      "deploy": 5525,
      "chain": 5526,
      "##osm": 5527,
      "overall": 5528,
      "##anged": 5529,
      "attend": 5530,
      "pulled": 5531,
      "Sunday": 5532,
      "!\"": 5533,
      "wis": 5534,
      "uncle": 5535,
      "bub": 5536,
      "messages": 5537,
      "antib": 5538,
      "##ipping": 5539,
      "argument": 5540,
      "Mer": 5541,
      "hell": 5542,
      "section": 5543,
      "##ula": 5544,
      "conver": 5545,
      "##soft": 5546,
      "owners": 5547,
      "confidence": 5548,
      "ideal": 5549,
      "symptoms": 5550,
      "Texas": 5551,
      "Pacific": 5552,
      "Next": 5553,
      "##osition": 5554,
      "bye": 5555,
      "connections": 5556,
      "mistakes": 5557,
      "36": 5558,
      "Dutch": 5559,
      "Uh": 5560,
      "nan": 5561,
      "voices": 5562,
      "shif": 5563,
      "grab": 5564,
      "wondering": 5565,
      "deaths": 5566,
      "emergency": 5567,
      "3D": 5568,
      "##ham": 5569,
      "##eration": 5570,
      "##lying": 5571,
      "sports": 5572,
      "implic": 5573,
      "recy": 5574,
      "shooting": 5575,
      "Human": 5576,
      "invisible": 5577,
      "Niger": 5578,
      "Roy": 5579,
      "foss": 5580,
      "##tered": 5581,
      "notes": 5582,
      "obtain": 5583,
      "sets": 5584,
      "##icially": 5585,
      "burning": 5586,
      "determine": 5587,
      "Actually": 5588,
      "##iplom": 5589,
      "Call": 5590,
      "Try": 5591,
      "dancing": 5592,
      "tens": 5593,
      "vessel": 5594,
      "inequ": 5595,
      "resolution": 5596,
      "##angers": 5597,
      "accompl": 5598,
      "##appy": 5599,
      "consumer": 5600,
      "empower": 5601,
      "historical": 5602,
      "renew": 5603,
      "roughly": 5604,
      "vulnerable": 5605,
      "Bur": 5606,
      "pages": 5607,
      "##oe": 5608,
      "##roc": 5609,
      "shame": 5610,
      "##ights": 5611,
      "chief": 5612,
      "##ella": 5613,
      "cultures": 5614,
      "consumption": 5615,
      "Kingdom": 5616,
      "ensure": 5617,
      "Nat": 5618,
      "der": 5619,
      "hol": 5620,
      "##stein": 5621,
      "exh": 5622,
      "suffered": 5623,
      "resistance": 5624,
      "Sen": 5625,
      "protected": 5626,
      "subsequ": 5627,
      "missed": 5628,
      "Prot": 5629,
      "##cohol": 5630,
      "components": 5631,
      "Bob": 5632,
      "Reg": 5633,
      "bare": 5634,
      "gut": 5635,
      "gang": 5636,
      "nur": 5637,
      "wedding": 5638,
      "##ker": 5639,
      "##utive": 5640,
      "##ams": 5641,
      "residents": 5642,
      "prepar": 5643,
      "trigg": 5644,
      "explained": 5645,
      "entertain": 5646,
      "normally": 5647,
      "professor": 5648,
      "puzz": 5649,
      "Microsoft": 5650,
      "99": 5651,
      "Got": 5652,
      "##father": 5653,
      "##iors": 5654,
      "sees": 5655,
      "veget": 5656,
      "hospitals": 5657,
      "circumstances": 5658,
      "lifetime": 5659,
      "thin": 5660,
      "granted": 5661,
      "versions": 5662,
      "engineer": 5663,
      "swimming": 5664,
      "satellite": 5665,
      "interpret": 5666,
      "Turn": 5667,
      "piano": 5668,
      "##esty": 5669,
      "proof": 5670,
      "compar": 5671,
      "constitution": 5672,
      "participate": 5673,
      "Windows": 5674,
      "Professor": 5675,
      "Jul": 5676,
      "borrow": 5677,
      "##ka": 5678,
      "shad": 5679,
      "spok": 5680,
      "##cipl": 5681,
      "repair": 5682,
      "Until": 5683,
      "prototyp": 5684,
      "figures": 5685,
      "dealing": 5686,
      "statistics": 5687,
      "Polish": 5688,
      "manufacturing": 5689,
      "Six": 5690,
      "##ingly": 5691,
      "##aus": 5692,
      "prices": 5693,
      "unus": 5694,
      "obl": 5695,
      "transpar": 5696,
      "interests": 5697,
      "prote": 5698,
      "breast": 5699,
      "operate": 5700,
      "##cript": 5701,
      "suggested": 5702,
      "Colonel": 5703,
      "conducted": 5704,
      "Follow": 5705,
      "Hall": 5706,
      "eld": 5707,
      "##inations": 5708,
      "##roll": 5709,
      "asleep": 5710,
      "chap": 5711,
      "plays": 5712,
      "friendly": 5713,
      "conversations": 5714,
      "Atlantic": 5715,
      "##itarian": 5716,
      "##ipe": 5717,
      "##elly": 5718,
      "factor": 5719,
      "generate": 5720,
      "maxim": 5721,
      "classes": 5722,
      "immune": 5723,
      "previously": 5724,
      "framework": 5725,
      "permanent": 5726,
      "Mod": 5727,
      "##anes": 5728,
      "##raw": 5729,
      "##abilities": 5730,
      "Social": 5731,
      "creatures": 5732,
      "infect": 5733,
      "distur": 5734,
      "violent": 5735,
      "ticket": 5736,
      "appreciate": 5737,
      "horses": 5738,
      "Eth": 5739,
      "IS": 5740,
      "Life": 5741,
      "bone": 5742,
      "disg": 5743,
      "scream": 5744,
      "request": 5745,
      "identified": 5746,
      "grandmother": 5747,
      "determined": 5748,
      "Francisco": 5749,
      "Back": 5750,
      "Cath": 5751,
      "Love": 5752,
      "Too": 5753,
      "##rid": 5754,
      "welcome": 5755,
      "mel": 5756,
      "sem": 5757,
      "expression": 5758,
      "perce": 5759,
      "naturally": 5760,
      "punish": 5761,
      "electrical": 5762,
      "tremendous": 5763,
      "Uk": 5764,
      "loud": 5765,
      "##ata": 5766,
      "muscle": 5767,
      "classroom": 5768,
      "drag": 5769,
      "customers": 5770,
      "phenomenon": 5771,
      "##edia": 5772,
      "##ardon": 5773,
      "##ensity": 5774,
      "parl": 5775,
      "Organ": 5776,
      "promot": 5777,
      "radical": 5778,
      "independence": 5779,
      "Latin": 5780,
      "Richard": 5781,
      "Viet": 5782,
      "##PS": 5783,
      "beer": 5784,
      "##entions": 5785,
      "quit": 5786,
      "absor": 5787,
      "primarily": 5788,
      "Institute": 5789,
      "efficiency": 5790,
      "Louis": 5791,
      "Alex": 5792,
      "##pir": 5793,
      "shark": 5794,
      "##rig": 5795,
      "desper": 5796,
      "falling": 5797,
      "faced": 5798,
      "citizen": 5799,
      "tox": 5800,
      "stem": 5801,
      "upset": 5802,
      "coord": 5803,
      "reprodu": 5804,
      "Amaz": 5805,
      "documents": 5806,
      "brilliant": 5807,
      "Add": 5808,
      "Def": 5809,
      "GDP": 5810,
      "Work": 5811,
      "jew": 5812,
      "##onely": 5813,
      "Associ": 5814,
      "grass": 5815,
      "practical": 5816,
      "stronger": 5817,
      "suffer": 5818,
      "sensitive": 5819,
      "layer": 5820,
      "Vietnam": 5821,
      "Sou": 5822,
      "Brown": 5823,
      "1990s": 5824,
      "continent": 5825,
      "continues": 5826,
      "photos": 5827,
      "sleeping": 5828,
      "resource": 5829,
      "numerous": 5830,
      "equivalent": 5831,
      "##olving": 5832,
      "##anta": 5833,
      "appropri": 5834,
      "eleph": 5835,
      "signs": 5836,
      "1995": 5837,
      "occasion": 5838,
      "reduced": 5839,
      "universal": 5840,
      "malaria": 5841,
      "option": 5842,
      "##vention": 5843,
      "##iters": 5844,
      "incor": 5845,
      "##icted": 5846,
      "traum": 5847,
      "organisms": 5848,
      "curious": 5849,
      "controll": 5850,
      "##exp": 5851,
      "illust": 5852,
      "neighbors": 5853,
      "intelligent": 5854,
      "convinced": 5855,
      "genome": 5856,
      "distinct": 5857,
      "potentially": 5858,
      "Techn": 5859,
      "vehicle": 5860,
      "etc": 5861,
      "Later": 5862,
      "unable": 5863,
      "datab": 5864,
      "politicians": 5865,
      "interaction": 5866,
      "kilometers": 5867,
      "Cle": 5868,
      "River": 5869,
      "##iders": 5870,
      "stom": 5871,
      "abst": 5872,
      "##ulpt": 5873,
      "alcohol": 5874,
      "presented": 5875,
      "Finally": 5876,
      "Flor": 5877,
      "telesc": 5878,
      "gap": 5879,
      "tight": 5880,
      "##bits": 5881,
      "##20": 5882,
      "barri": 5883,
      "divor": 5884,
      "forgive": 5885,
      "fairly": 5886,
      "agricultural": 5887,
      "vehicles": 5888,
      "intellectual": 5889,
      "Found": 5890,
      "Talk": 5891,
      "hom": 5892,
      "##osa": 5893,
      "conserv": 5894,
      "household": 5895,
      "armed": 5896,
      "closely": 5897,
      "1980s": 5898,
      "combined": 5899,
      "Government": 5900,
      "videos": 5901,
      "Naz": 5902,
      "ax": 5903,
      "##tle": 5904,
      "##lock": 5905,
      "##yn": 5906,
      "metal": 5907,
      "processing": 5908,
      "corresp": 5909,
      "properties": 5910,
      "ridic": 5911,
      "##anz": 5912,
      "intention": 5913,
      "##agon": 5914,
      "##phas": 5915,
      "memories": 5916,
      "189": 5917,
      "excuse": 5918,
      "mountains": 5919,
      "Moon": 5920,
      "Number": 5921,
      "bom": 5922,
      "diplom": 5923,
      "oh": 5924,
      "pool": 5925,
      "##zing": 5926,
      "##omfort": 5927,
      "##geon": 5928,
      "chose": 5929,
      "##ogue": 5930,
      "acts": 5931,
      "crash": 5932,
      "grade": 5933,
      "physic": 5934,
      "positions": 5935,
      "soldier": 5936,
      "improved": 5937,
      "auton": 5938,
      "drawing": 5939,
      "fifth": 5940,
      "Ver": 5941,
      "##iety": 5942,
      "##iment": 5943,
      "myst": 5944,
      "....": 5945,
      "coat": 5946,
      "prec": 5947,
      "scar": 5948,
      "elimin": 5949,
      "Should": 5950,
      "situations": 5951,
      "represents": 5952,
      "football": 5953,
      "Georg": 5954,
      "Palest": 5955,
      "mixed": 5956,
      "recommend": 5957,
      "navig": 5958,
      "Watch": 5959,
      "ju": 5960,
      "row": 5961,
      "##sper": 5962,
      "##abled": 5963,
      "##ache": 5964,
      "pocket": 5965,
      "sculpt": 5966,
      "##conn": 5967,
      "economics": 5968,
      "##ribly": 5969,
      "Indones": 5970,
      "Didn": 5971,
      "Security": 5972,
      "blocks": 5973,
      "hoping": 5974,
      "declared": 5975,
      "Henry": 5976,
      "Ben": 5977,
      "Old": 5978,
      "Sil": 5979,
      "vent": 5980,
      "##rating": 5981,
      "##oop": 5982,
      "staying": 5983,
      "Scar": 5984,
      "Scott": 5985,
      "microsc": 5986,
      "options": 5987,
      "democratic": 5988,
      "Dis": 5989,
      "##uting": 5990,
      "hack": 5991,
      "blog": 5992,
      "studio": 5993,
      "designers": 5994,
      "issued": 5995,
      "Without": 5996,
      "oceans": 5997,
      "Trans": 5998,
      "participants": 5999,
      "unfortunately": 6000,
      "liquid": 6001,
      "Leave": 6002,
      "proteins": 6003,
      "Den": 6004,
      "fought": 6005,
      "via": 6006,
      "##throp": 6007,
      "##que": 6008,
      "buying": 6009,
      "possibilities": 6010,
      "Develop": 6011,
      "ethnic": 6012,
      "clouds": 6013,
      "Sweden": 6014,
      "aspects": 6015,
      "Dar": 6016,
      "Ell": 6017,
      "Serv": 6018,
      "##la": 6019,
      "##cknow": 6020,
      "intu": 6021,
      "officially": 6022,
      "Church": 6023,
      "remove": 6024,
      "foundation": 6025,
      "slide": 6026,
      "singing": 6027,
      "Anything": 6028,
      "crying": 6029,
      "Pre": 6030,
      "##isation": 6031,
      "anger": 6032,
      "withd": 6033,
      "notion": 6034,
      "feature": 6035,
      "acting": 6036,
      "dism": 6037,
      "emissions": 6038,
      "warming": 6039,
      "radiation": 6040,
      "recognition": 6041,
      "amounts": 6042,
      "strike": 6043,
      "clinical": 6044,
      "Olym": 6045,
      "Sea": 6046,
      "cosm": 6047,
      "pin": 6048,
      "zone": 6049,
      "##under": 6050,
      "tech": 6051,
      "smile": 6052,
      "formal": 6053,
      "##arrass": 6054,
      "license": 6055,
      "stomach": 6056,
      "Olymp": 6057,
      "Win": 6058,
      "shar": 6059,
      "prosec": 6060,
      "knife": 6061,
      "##apse": 6062,
      "secure": 6063,
      "fewer": 6064,
      "clever": 6065,
      "diam": 6066,
      "Parl": 6067,
      "##uits": 6068,
      "##ding": 6069,
      "##ye": 6070,
      "##itors": 6071,
      "##otic": 6072,
      "prem": 6073,
      "centers": 6074,
      "define": 6075,
      "breaking": 6076,
      "effectively": 6077,
      "educational": 6078,
      "gentleman": 6079,
      "sequence": 6080,
      "Bas": 6081,
      "Ham": 6082,
      "ru": 6083,
      "inner": 6084,
      "infin": 6085,
      "director": 6086,
      "civilization": 6087,
      "struck": 6088,
      "salt": 6089,
      "Minister": 6090,
      "fascinating": 6091,
      ".)": 6092,
      "west": 6093,
      "##rors": 6094,
      "##iat": 6095,
      "##gl": 6096,
      "##win": 6097,
      "##orters": 6098,
      "##opes": 6099,
      "##ogether": 6100,
      "contrast": 6101,
      "interface": 6102,
      "claims": 6103,
      "logic": 6104,
      "Pa": 6105,
      "Such": 6106,
      "nurs": 6107,
      "thick": 6108,
      "##rey": 6109,
      "sched": 6110,
      "regret": 6111,
      "controvers": 6112,
      "practices": 6113,
      "measures": 6114,
      "1970s": 6115,
      "observ": 6116,
      "combination": 6117,
      "distributed": 6118,
      "algorithms": 6119,
      "CE": 6120,
      "Net": 6121,
      "tasks": 6122,
      "##osen": 6123,
      "trillion": 6124,
      "eval": 6125,
      "collected": 6126,
      "1990": 6127,
      "Smith": 6128,
      "innocent": 6129,
      "Mill": 6130,
      "acknow": 6131,
      "powers": 6132,
      "##born": 6133,
      "dele": 6134,
      "upd": 6135,
      "disaster": 6136,
      "lessons": 6137,
      "annual": 6138,
      "microbes": 6139,
      "delic": 6140,
      "##isted": 6141,
      "##quarters": 6142,
      "emphas": 6143,
      "tested": 6144,
      "banks": 6145,
      "embarrass": 6146,
      "Hurry": 6147,
      "unusual": 6148,
      "Association": 6149,
      "Parliament": 6150,
      "fert": 6151,
      "mile": 6152,
      "##zed": 6153,
      "##areness": 6154,
      "stone": 6155,
      "frust": 6156,
      "##iform": 6157,
      "##apore": 6158,
      "manager": 6159,
      "commission": 6160,
      "1997": 6161,
      "environments": 6162,
      "arrive": 6163,
      "earn": 6164,
      "transportation": 6165,
      "rebu": 6166,
      "bits": 6167,
      "lord": 6168,
      "wars": 6169,
      "dozen": 6170,
      "Stay": 6171,
      "corruption": 6172,
      "divided": 6173,
      "CO2": 6174,
      "Singapore": 6175,
      "split": 6176,
      "NASA": 6177,
      "cognitive": 6178,
      "Ev": 6179,
      "Ten": 6180,
      "east": 6181,
      "mothers": 6182,
      "pitch": 6183,
      "rig": 6184,
      "##EC": 6185,
      "chart": 6186,
      "##ums": 6187,
      "Step": 6188,
      "##ava": 6189,
      "traveling": 6190,
      "chemistry": 6191,
      "buried": 6192,
      "33": 6193,
      "Squ": 6194,
      "##ael": 6195,
      "##AS": 6196,
      "##omer": 6197,
      "##abet": 6198,
      "##ector": 6199,
      "##enses": 6200,
      "persu": 6201,
      "musical": 6202,
      "increases": 6203,
      "delay": 6204,
      "Anyway": 6205,
      "concerns": 6206,
      "title": 6207,
      "narrative": 6208,
      "Long": 6209,
      "ears": 6210,
      "Str": 6211,
      "decline": 6212,
      "##teen": 6213,
      "opposed": 6214,
      "arrange": 6215,
      "##ealous": 6216,
      "##urd": 6217,
      "relax": 6218,
      "personally": 6219,
      "warning": 6220,
      "1996": 6221,
      "column": 6222,
      "views": 6223,
      "represented": 6224,
      "mirror": 6225,
      "complain": 6226,
      "Pete": 6227,
      "##gs": 6228,
      "heav": 6229,
      "spin": 6230,
      "technological": 6231,
      "meetings": 6232,
      "existed": 6233,
      "performed": 6234,
      "steel": 6235,
      "arrest": 6236,
      "damaged": 6237,
      "discussion": 6238,
      "wisdom": 6239,
      "Besides": 6240,
      "cert": 6241,
      "##ses": 6242,
      "toler": 6243,
      "fruit": 6244,
      "usual": 6245,
      "metaph": 6246,
      "explo": 6247,
      "constant": 6248,
      "roads": 6249,
      "Help": 6250,
      "narrow": 6251,
      "65": 6252,
      "Sol": 6253,
      "##ha": 6254,
      "##icing": 6255,
      "comment": 6256,
      "recru": 6257,
      "Unf": 6258,
      "surve": 6259,
      "elev": 6260,
      "extended": 6261,
      "immigrants": 6262,
      "joke": 6263,
      "disappoint": 6264,
      "AIDS": 6265,
      "Emp": 6266,
      "algorithm": 6267,
      "galaxy": 6268,
      "Berlin": 6269,
      "Tra": 6270,
      "Wal": 6271,
      "fu": 6272,
      "##cers": 6273,
      "##ena": 6274,
      "##illing": 6275,
      "Children": 6276,
      "memor": 6277,
      "Someone": 6278,
      "Somebody": 6279,
      "flex": 6280,
      "housing": 6281,
      "Bro": 6282,
      "Del": 6283,
      "Ir": 6284,
      "cure": 6285,
      "sake": 6286,
      "##gram": 6287,
      "##RI": 6288,
      "##onia": 6289,
      "##geant": 6290,
      "##ureau": 6291,
      "Star": 6292,
      "southern": 6293,
      "suspect": 6294,
      "definitely": 6295,
      "chemicals": 6296,
      "Between": 6297,
      "Eve": 6298,
      "Hon": 6299,
      "##esth": 6300,
      "myster": 6301,
      "##using": 6302,
      "sacri": 6303,
      "committee": 6304,
      "score": 6305,
      "visible": 6306,
      "frequently": 6307,
      "mosquit": 6308,
      "smoking": 6309,
      "Jesus": 6310,
      "\"?": 6311,
      "Det": 6312,
      "Mont": 6313,
      "tag": 6314,
      "##oom": 6315,
      "##can": 6316,
      "##EN": 6317,
      "proved": 6318,
      "##iveness": 6319,
      "click": 6320,
      "cutting": 6321,
      "anxiety": 6322,
      "entrepreneurs": 6323,
      "Group": 6324,
      "bio": 6325,
      "dust": 6326,
      "diet": 6327,
      "rush": 6328,
      "##MA": 6329,
      "##elve": 6330,
      "plus": 6331,
      "designing": 6332,
      "organic": 6333,
      "advent": 6334,
      "Space": 6335,
      "reaching": 6336,
      "grandfather": 6337,
      "victim": 6338,
      "21st": 6339,
      "horrible": 6340,
      "Peter": 6341,
      "holes": 6342,
      "##rations": 6343,
      "##ES": 6344,
      "##itan": 6345,
      "manip": 6346,
      "shell": 6347,
      "scr": 6348,
      "##ocal": 6349,
      "approved": 6350,
      "awareness": 6351,
      "literature": 6352,
      "burned": 6353,
      "northern": 6354,
      "Constitution": 6355,
      "Time": 6356,
      "award": 6357,
      "##vard": 6358,
      "stretch": 6359,
      "Int": 6360,
      "incent": 6361,
      "apolog": 6362,
      "fossil": 6363,
      "Lib": 6364,
      "Mag": 6365,
      "tap": 6366,
      "##TS": 6367,
      "recip": 6368,
      "chosen": 6369,
      "compare": 6370,
      "discipl": 6371,
      "Still": 6372,
      "1994": 6373,
      "horiz": 6374,
      "Major": 6375,
      "achieved": 6376,
      "debt": 6377,
      "breathe": 6378,
      "linked": 6379,
      "dynamic": 6380,
      "territory": 6381,
      "explanation": 6382,
      "Lab": 6383,
      "Sever": 6384,
      "Inc": 6385,
      "overcome": 6386,
      "Scot": 6387,
      "mechanism": 6388,
      "philosophy": 6389,
      "Audience": 6390,
      "Unfortunately": 6391,
      "pour": 6392,
      "##case": 6393,
      "enh": 6394,
      "equality": 6395,
      "error": 6396,
      "Fine": 6397,
      "fired": 6398,
      "rab": 6399,
      "sle": 6400,
      "##ship": 6401,
      "##burg": 6402,
      "stations": 6403,
      "##osure": 6404,
      "outcome": 6405,
      "##bert": 6406,
      "medium": 6407,
      "relevant": 6408,
      "summ": 6409,
      "Poland": 6410,
      "Mount": 6411,
      "##east": 6412,
      "##reed": 6413,
      "##ican": 6414,
      "##stream": 6415,
      "finds": 6416,
      "obst": 6417,
      "technique": 6418,
      "depart": 6419,
      "uncertain": 6420,
      "revealed": 6421,
      "accurate": 6422,
      "chicken": 6423,
      "EU": 6424,
      "Met": 6425,
      "mouse": 6426,
      "native": 6427,
      "##care": 6428,
      "##greg": 6429,
      "Thus": 6430,
      "##iration": 6431,
      "sail": 6432,
      "##lett": 6433,
      "adopt": 6434,
      "locked": 6435,
      "permission": 6436,
      "repeated": 6437,
      "academic": 6438,
      "mat": 6439,
      "rum": 6440,
      "thri": 6441,
      "march": 6442,
      "##iox": 6443,
      "1993": 6444,
      "weapon": 6445,
      "Korean": 6446,
      "ancestors": 6447,
      "Sal": 6448,
      "Ven": 6449,
      "##inet": 6450,
      "client": 6451,
      "apple": 6452,
      "brave": 6453,
      "nearby": 6454,
      "##engers": 6455,
      "##box": 6456,
      "earthqu": 6457,
      "cooperation": 6458,
      "pregnant": 6459,
      "800": 6460,
      "Museum": 6461,
      "fake": 6462,
      "##OS": 6463,
      "alarm": 6464,
      "incident": 6465,
      "populations": 6466,
      "rising": 6467,
      "surviv": 6468,
      "volume": 6469,
      "silence": 6470,
      "murdered": 6471,
      "drove": 6472,
      "spectrum": 6473,
      "organs": 6474,
      "horm": 6475,
      "##eding": 6476,
      "versus": 6477,
      "limits": 6478,
      "escap": 6479,
      "##kyo": 6480,
      "inequality": 6481,
      "Aren": 6482,
      "Sar": 6483,
      "Sus": 6484,
      "cous": 6485,
      "eh": 6486,
      "##ili": 6487,
      "##aine": 6488,
      "##rows": 6489,
      "destruction": 6490,
      "significantly": 6491,
      "Lad": 6492,
      "vib": 6493,
      "whis": 6494,
      "##olen": 6495,
      "atoms": 6496,
      "##igen": 6497,
      "expans": 6498,
      "involve": 6499,
      "Tokyo": 6500,
      "topic": 6501,
      "glasses": 6502,
      "newspapers": 6503,
      "Several": 6504,
      "Liber": 6505,
      "migr": 6506,
      "##bal": 6507,
      "##DA": 6508,
      "bees": 6509,
      "forests": 6510,
      "##ateful": 6511,
      "agencies": 6512,
      "curren": 6513,
      "concert": 6514,
      "suggests": 6515,
      "universities": 6516,
      "Portug": 6517,
      "antibiot": 6518,
      "bicy": 6519,
      "laid": 6520,
      "tack": 6521,
      "ate": 6522,
      "appeal": 6523,
      "1991": 6524,
      "holds": 6525,
      "obser": 6526,
      "photographs": 6527,
      "sample": 6528,
      "shapes": 6529,
      "wounded": 6530,
      "Gold": 6531,
      "Jane": 6532,
      "dign": 6533,
      "##PA": 6534,
      "Though": 6535,
      "disrupt": 6536,
      "schem": 6537,
      "extend": 6538,
      "##whel": 6539,
      "privacy": 6540,
      "convince": 6541,
      "route": 6542,
      "Robert": 6543,
      "Royal": 6544,
      "Bul": 6545,
      "Hung": 6546,
      "rely": 6547,
      "stolen": 6548,
      "abroad": 6549,
      "phase": 6550,
      "protest": 6551,
      "behave": 6552,
      "accounts": 6553,
      "Company": 6554,
      "'.": 6555,
      "vert": 6556,
      "##avery": 6557,
      "##ami": 6558,
      "##ogen": 6559,
      "Ann": 6560,
      "subs": 6561,
      "##aneously": 6562,
      "Play": 6563,
      "Mean": 6564,
      "cameras": 6565,
      "purposes": 6566,
      "delivered": 6567,
      "settle": 6568,
      "galaxies": 6569,
      "scholars": 6570,
      "Mosc": 6571,
      "batt": 6572,
      "cens": 6573,
      "cents": 6574,
      "rac": 6575,
      "##illa": 6576,
      "intense": 6577,
      "agency": 6578,
      "consult": 6579,
      "generated": 6580,
      "Shall": 6581,
      "1992": 6582,
      "physically": 6583,
      "meaningful": 6584,
      "Super": 6585,
      "pushed": 6586,
      "Kenya": 6587,
      "fortun": 6588,
      "##iosity": 6589,
      "instrument": 6590,
      "Hot": 6591,
      "bul": 6592,
      "gh": 6593,
      "jealous": 6594,
      "rice": 6595,
      "##rich": 6596,
      "overwhel": 6597,
      "##neath": 6598,
      "successfully": 6599,
      "250": 6600,
      "facilities": 6601,
      "feedback": 6602,
      "Canadian": 6603,
      "assistance": 6604,
      "Moscow": 6605,
      "700": 6606,
      "James": 6607,
      "lect": 6608,
      "##inction": 6609,
      "uniform": 6610,
      "overl": 6611,
      "killer": 6612,
      "##what": 6613,
      "equally": 6614,
      "##onym": 6615,
      "villages": 6616,
      "instructions": 6617,
      "Eastern": 6618,
      "airplane": 6619,
      "Vir": 6620,
      "tort": 6621,
      "vital": 6622,
      "##ias": 6623,
      "##com": 6624,
      "external": 6625,
      "orbit": 6626,
      "##berg": 6627,
      "Stan": 6628,
      "##athers": 6629,
      "##arsh": 6630,
      "skill": 6631,
      "supports": 6632,
      "behaviors": 6633,
      "concrete": 6634,
      "combat": 6635,
      "neuros": 6636,
      "Better": 6637,
      "Bon": 6638,
      "cort": 6639,
      "fro": 6640,
      "lake": 6641,
      "pump": 6642,
      "##fish": 6643,
      "height": 6644,
      "orch": 6645,
      "unh": 6646,
      "trials": 6647,
      "infected": 6648,
      "Germans": 6649,
      "attacked": 6650,
      "Police": 6651,
      "Steve": 6652,
      "##rimination": 6653,
      "Suppose": 6654,
      "latest": 6655,
      "epidemic": 6656,
      "parliament": 6657,
      "Move": 6658,
      "Minist": 6659,
      "Sur": 6660,
      "cute": 6661,
      "dressed": 6662,
      "mood": 6663,
      "##rison": 6664,
      "##yr": 6665,
      "inev": 6666,
      "##ctic": 6667,
      "sport": 6668,
      "prime": 6669,
      "##acles": 6670,
      "grateful": 6671,
      "passing": 6672,
      "terribly": 6673,
      "psychological": 6674,
      "surrounded": 6675,
      "Islamic": 6676,
      "appointed": 6677,
      "None": 6678,
      "diox": 6679,
      "lob": 6680,
      "wet": 6681,
      "##field": 6682,
      "##bel": 6683,
      "##ala": 6684,
      "##etics": 6685,
      "##ida": 6686,
      "##rooms": 6687,
      "excell": 6688,
      "contem": 6689,
      "oldest": 6690,
      "protocol": 6691,
      "headquarters": 6692,
      "promote": 6693,
      "funds": 6694,
      "empathy": 6695,
      "broadcast": 6696,
      "Madame": 6697,
      "Pan": 6698,
      "cas": 6699,
      "alb": 6700,
      "whenever": 6701,
      "coach": 6702,
      "worlds": 6703,
      "reput": 6704,
      "puts": 6705,
      "percentage": 6706,
      "economies": 6707,
      "silent": 6708,
      "Glob": 6709,
      "spoken": 6710,
      "Est": 6711,
      "Haw": 6712,
      "Kong": 6713,
      "fisher": 6714,
      "hiding": 6715,
      "##rade": 6716,
      "theories": 6717,
      "##cel": 6718,
      "##eart": 6719,
      "##usal": 6720,
      "slave": 6721,
      "hardware": 6722,
      "arts": 6723,
      "Apple": 6724,
      "186": 6725,
      "threatened": 6726,
      "assume": 6727,
      "printing": 6728,
      "component": 6729,
      "Ministry": 6730,
      "Civil": 6731,
      "Ever": 6732,
      "weigh": 6733,
      "##anging": 6734,
      "poetry": 6735,
      "solved": 6736,
      "joint": 6737,
      "Project": 6738,
      "Turkey": 6739,
      "shopping": 6740,
      "##ocolate": 6741,
      "Following": 6742,
      "Amazon": 6743,
      "appropriate": 6744,
      "Scarlett": 6745,
      "dioxide": 6746,
      "Ice": 6747,
      "diverse": 6748,
      "wing": 6749,
      "wid": 6750,
      "##lishing": 6751,
      "##ym": 6752,
      "##aser": 6753,
      "proceed": 6754,
      "button": 6755,
      "perception": 6756,
      "##elled": 6757,
      "writer": 6758,
      "decent": 6759,
      "Force": 6760,
      "weeke": 6761,
      "challenging": 6762,
      "1989": 6763,
      "calm": 6764,
      "acquired": 6765,
      "Muslims": 6766,
      "rejected": 6767,
      "dedicated": 6768,
      "romantic": 6769,
      "Lar": 6770,
      "Little": 6771,
      "fulf": 6772,
      "hook": 6773,
      "pill": 6774,
      "##mates": 6775,
      "##za": 6776,
      "##asters": 6777,
      "##etch": 6778,
      "##enth": 6779,
      "prosper": 6780,
      "##inking": 6781,
      "ours": 6782,
      "enforce": 6783,
      "exposed": 6784,
      "##ptions": 6785,
      "electronic": 6786,
      "swear": 6787,
      "mathematical": 6788,
      "frag": 6789,
      "collaboration": 6790,
      "Catholic": 6791,
      "Further": 6792,
      "Lady": 6793,
      "Science": 6794,
      "bones": 6795,
      "lonely": 6796,
      "##ki": 6797,
      "##ooth": 6798,
      "plate": 6799,
      "##ilding": 6800,
      "programming": 6801,
      "Within": 6802,
      "therapy": 6803,
      "34": 6804,
      "Bab": 6805,
      "Fil": 6806,
      "##aj": 6807,
      "##och": 6808,
      "##pe": 6809,
      "threw": 6810,
      "theor": 6811,
      "frank": 6812,
      "wherever": 6813,
      "blank": 6814,
      "guide": 6815,
      "##ucky": 6816,
      "wondered": 6817,
      "Rights": 6818,
      "depending": 6819,
      "Maj": 6820,
      "princip": 6821,
      "evolutionary": 6822,
      "settled": 6823,
      "expanded": 6824,
      "##lusive": 6825,
      "gravity": 6826,
      "Office": 6827,
      "95": 6828,
      "Bus": 6829,
      "Jon": 6830,
      "##ini": 6831,
      "##asy": 6832,
      "##ication": 6833,
      "imper": 6834,
      "underneath": 6835,
      "Assembly": 6836,
      "handed": 6837,
      "Island": 6838,
      "publish": 6839,
      "divide": 6840,
      "transformation": 6841,
      "epis": 6842,
      "isolated": 6843,
      "oblig": 6844,
      "correspond": 6845,
      "Development": 6846,
      "Ire": 6847,
      "dare": 6848,
      "furn": 6849,
      "rhy": 6850,
      "##down": 6851,
      "##icious": 6852,
      "download": 6853,
      "server": 6854,
      "distingu": 6855,
      "electron": 6856,
      "coral": 6857,
      "domin": 6858,
      "rarely": 6859,
      "begun": 6860,
      "sharp": 6861,
      "Certain": 6862,
      "Hist": 6863,
      "Nice": 6864,
      "##Tube": 6865,
      "##gly": 6866,
      "##ona": 6867,
      "##ari": 6868,
      "Third": 6869,
      "shirt": 6870,
      "enable": 6871,
      "##...": 6872,
      "stranger": 6873,
      "designs": 6874,
      "winning": 6875,
      "opposition": 6876,
      "beliefs": 6877,
      "graduate": 6878,
      "Southern": 6879,
      "Ireland": 6880,
      "Hong": 6881,
      "soph": 6882,
      "tears": 6883,
      "##point": 6884,
      "inhab": 6885,
      "##iture": 6886,
      "outc": 6887,
      "somewhat": 6888,
      "disag": 6889,
      "Therefore": 6890,
      "extent": 6891,
      "Tomorrow": 6892,
      "stands": 6893,
      "muscles": 6894,
      "observed": 6895,
      "properly": 6896,
      "fingers": 6897,
      "repeat": 6898,
      "vaccine": 6899,
      "insects": 6900,
      "##ollywood": 6901,
      "Hit": 6902,
      "Jose": 6903,
      "bat": 6904,
      "cake": 6905,
      "hill": 6906,
      "##lers": 6907,
      "input": 6908,
      "##roat": 6909,
      "alleg": 6910,
      "YouTube": 6911,
      "reconst": 6912,
      "surf": 6913,
      "supplies": 6914,
      "integrated": 6915,
      "cigarette": 6916,
      "confirmed": 6917,
      "Federal": 6918,
      "abandoned": 6919,
      "toxic": 6920,
      "database": 6921,
      "Valley": 6922,
      "dict": 6923,
      "sisters": 6924,
      "tear": 6925,
      "##BC": 6926,
      "shr": 6927,
      "designer": 6928,
      "Convention": 6929,
      "interactions": 6930,
      "rocks": 6931,
      "immediate": 6932,
      "contribute": 6933,
      "Michael": 6934,
      "dimensional": 6935,
      "##expected": 6936,
      "Rel": 6937,
      "rational": 6938,
      "##ih": 6939,
      "reef": 6940,
      "seats": 6941,
      "expressed": 6942,
      "scary": 6943,
      "Asian": 6944,
      "strict": 6945,
      "solving": 6946,
      "windows": 6947,
      "fundamentally": 6948,
      "hunger": 6949,
      "Jeff": 6950,
      "channel": 6951,
      "tumor": 6952,
      "Wall": 6953,
      "upper": 6954,
      "##iel": 6955,
      "##cul": 6956,
      "stro": 6957,
      "plain": 6958,
      "underground": 6959,
      "slavery": 6960,
      "confront": 6961,
      "marketing": 6962,
      "emerging": 6963,
      "investigation": 6964,
      "Turk": 6965,
      "climb": 6966,
      "abstract": 6967,
      "ridiculous": 6968,
      "%.": 6969,
      "Cam": 6970,
      "Id": 6971,
      "wise": 6972,
      "##uan": 6973,
      "##othing": 6974,
      "plot": 6975,
      "worker": 6976,
      "brown": 6977,
      "extract": 6978,
      "discrimination": 6979,
      "retire": 6980,
      "confident": 6981,
      "hopefully": 6982,
      "hearts": 6983,
      "drawn": 6984,
      "separated": 6985,
      "refugee": 6986,
      "prepare": 6987,
      "Malays": 6988,
      "proposal": 6989,
      "nurse": 6990,
      "mystery": 6991,
      "Poor": 6992,
      "toile": 6993,
      "meal": 6994,
      "Whatever": 6995,
      "##agram": 6996,
      "##athan": 6997,
      "string": 6998,
      "passengers": 6999,
      "assess": 7000,
      "187": 7001,
      "badly": 7002,
      "industries": 7003,
      "trend": 7004,
      "Helen": 7005,
      "shaped": 7006,
      "##omeday": 7007,
      "scenar": 7008,
      "pilot": 7009,
      "Du": 7010,
      "Kh": 7011,
      "Mur": 7012,
      "Rad": 7013,
      "borders": 7014,
      "diction": 7015,
      "gained": 7016,
      "Shut": 7017,
      "188": 7018,
      "drown": 7019,
      "devast": 7020,
      "waited": 7021,
      "cooking": 7022,
      "##going": 7023,
      "routine": 7024,
      "constructed": 7025,
      "Foundation": 7026,
      "Camb": 7027,
      "Norm": 7028,
      "Navy": 7029,
      "Water": 7030,
      "la": 7031,
      "##uated": 7032,
      "##urday": 7033,
      "stores": 7034,
      "##eline": 7035,
      "wanting": 7036,
      "##angle": 7037,
      "attrib": 7038,
      "parall": 7039,
      "entr": 7040,
      "depth": 7041,
      "Bring": 7042,
      "eaten": 7043,
      "Harvard": 7044,
      "subjects": 7045,
      "attempted": 7046,
      "incorpor": 7047,
      "cats": 7048,
      "pra": 7049,
      "pushing": 7050,
      "sed": 7051,
      "##fit": 7052,
      "cha": 7053,
      "output": 7054,
      "shoulder": 7055,
      "marine": 7056,
      "delight": 7057,
      "1960s": 7058,
      "conclusion": 7059,
      "Syria": 7060,
      "flew": 7061,
      "laboratory": 7062,
      "referred": 7063,
      "instruments": 7064,
      "crops": 7065,
      "metaphor": 7066,
      "38": 7067,
      "Fire": 7068,
      "Jones": 7069,
      "tong": 7070,
      "##bor": 7071,
      "##inent": 7072,
      "##esis": 7073,
      "##sters": 7074,
      "##raction": 7075,
      "##uster": 7076,
      "sole": 7077,
      "##orted": 7078,
      "##iece": 7079,
      "unexpected": 7080,
      "cock": 7081,
      "offices": 7082,
      "invite": 7083,
      "Almost": 7084,
      "drives": 7085,
      "Arch": 7086,
      "prize": 7087,
      "painful": 7088,
      "influenced": 7089,
      "innovative": 7090,
      "automatically": 7091,
      "Budd": 7092,
      "##fying": 7093,
      "##ua": 7094,
      "##orage": 7095,
      "##ason": 7096,
      "choo": 7097,
      "conce": 7098,
      "clients": 7099,
      "crimes": 7100,
      "infection": 7101,
      "charges": 7102,
      "traveled": 7103,
      "argued": 7104,
      "injured": 7105,
      "dramatic": 7106,
      "battery": 7107,
      "fabric": 7108,
      "Bre": 7109,
      "Kar": 7110,
      "cod": 7111,
      "##icate": 7112,
      "##roph": 7113,
      "##keep": 7114,
      "conven": 7115,
      "##irect": 7116,
      "flower": 7117,
      "Att": 7118,
      "Looks": 7119,
      "draft": 7120,
      "uncomfort": 7121,
      "molecule": 7122,
      "Australian": 7123,
      "Saturday": 7124,
      "merely": 7125,
      "cerem": 7126,
      "exhaust": 7127,
      "Free": 7128,
      "Mond": 7129,
      "Pop": 7130,
      "Sah": 7131,
      "mic": 7132,
      "sale": 7133,
      "##sey": 7134,
      "##ilarly": 7135,
      "Young": 7136,
      "unt": 7137,
      "owner": 7138,
      "involves": 7139,
      "conservation": 7140,
      "Alright": 7141,
      "grid": 7142,
      "objective": 7143,
      "parking": 7144,
      "legislation": 7145,
      "senior": 7146,
      "PM": 7147,
      "SS": 7148,
      "van": 7149,
      "##uate": 7150,
      "##esome": 7151,
      "##orous": 7152,
      "ing": 7153,
      "##aded": 7154,
      "noted": 7155,
      "chances": 7156,
      "upstairs": 7157,
      "searching": 7158,
      "gradually": 7159,
      "breathing": 7160,
      "voting": 7161,
      "customer": 7162,
      "hanging": 7163,
      "mortality": 7164,
      "encouraged": 7165,
      "adjust": 7166,
      "42": 7167,
      "Girl": 7168,
      "Hollywood": 7169,
      "##ixt": 7170,
      "offers": 7171,
      "valid": 7172,
      "consumers": 7173,
      "concepts": 7174,
      "affects": 7175,
      "Empire": 7176,
      "currency": 7177,
      "fiction": 7178,
      "tip": 7179,
      "##ET": 7180,
      "##bur": 7181,
      "manner": 7182,
      "Start": 7183,
      "grows": 7184,
      "strongly": 7185,
      "rocket": 7186,
      "McC": 7187,
      "Men": 7188,
      "##LA": 7189,
      "##omas": 7190,
      "##oster": 7191,
      "ages": 7192,
      "loan": 7193,
      "phr": 7194,
      "surre": 7195,
      "homework": 7196,
      "slaves": 7197,
      "productive": 7198,
      "boxes": 7199,
      "strategies": 7200,
      "recovery": 7201,
      "hydrogen": 7202,
      "privilege": 7203,
      "Econom": 7204,
      "Vict": 7205,
      "##enger": 7206,
      "##employ": 7207,
      "disorder": 7208,
      "##icking": 7209,
      "desp": 7210,
      "pharm": 7211,
      "letting": 7212,
      "personality": 7213,
      "format": 7214,
      "headed": 7215,
      "anticip": 7216,
      "fears": 7217,
      "darkness": 7218,
      "portra": 7219,
      "exception": 7220,
      "hypothes": 7221,
      "Queen": 7222,
      "Bulgar": 7223,
      "sophistic": 7224,
      "Ba": 7225,
      "Dou": 7226,
      "raw": 7227,
      "tied": 7228,
      "##vable": 7229,
      "chocolate": 7230,
      "recon": 7231,
      "believes": 7232,
      "strangers": 7233,
      "curiosity": 7234,
      "measured": 7235,
      "Carol": 7236,
      "harvest": 7237,
      "expansion": 7238,
      "uncomfortable": 7239,
      "Fif": 7240,
      "LG": 7241,
      "Rick": 7242,
      "Wik": 7243,
      "##ls": 7244,
      "##bl": 7245,
      "##bage": 7246,
      "##wr": 7247,
      "##vy": 7248,
      "##ashing": 7249,
      "##ros": 7250,
      "##add": 7251,
      "Soci": 7252,
      "resil": 7253,
      "ending": 7254,
      "monit": 7255,
      "articles": 7256,
      "infant": 7257,
      "constra": 7258,
      "globe": 7259,
      "Blue": 7260,
      "Mike": 7261,
      "Pret": 7262,
      "boring": 7263,
      "fan": 7264,
      "gate": 7265,
      "maps": 7266,
      "tie": 7267,
      "##ora": 7268,
      "##icon": 7269,
      "##theless": 7270,
      "outl": 7271,
      "root": 7272,
      "afterwards": 7273,
      "accused": 7274,
      "keys": 7275,
      "distant": 7276,
      "bias": 7277,
      "estimate": 7278,
      "taxes": 7279,
      "disappeared": 7280,
      "Academ": 7281,
      "barely": 7282,
      "Organization": 7283,
      "conservative": 7284,
      "Us": 7285,
      "##GO": 7286,
      "##pro": 7287,
      "conqu": 7288,
      "proport": 7289,
      "guid": 7290,
      "division": 7291,
      "dramatically": 7292,
      "Due": 7293,
      "MIT": 7294,
      "Van": 7295,
      "pound": 7296,
      "##rant": 7297,
      "##fall": 7298,
      "##erable": 7299,
      "##itate": 7300,
      "##uts": 7301,
      "##etically": 7302,
      "reference": 7303,
      "##ading": 7304,
      "alien": 7305,
      "##uba": 7306,
      "finance": 7307,
      "confused": 7308,
      "speaks": 7309,
      "productivity": 7310,
      "prisoner": 7311,
      "engagement": 7312,
      "Jerusal": 7313,
      "elder": 7314,
      "outcomes": 7315,
      "Jerusalem": 7316,
      "37": 7317,
      "Tor": 7318,
      "Treat": 7319,
      "fallen": 7320,
      "pace": 7321,
      "ugly": 7322,
      "##agger": 7323,
      "##ograp": 7324,
      "twenty": 7325,
      "invention": 7326,
      "minister": 7327,
      "tries": 7328,
      "exploration": 7329,
      "passport": 7330,
      "assign": 7331,
      "educated": 7332,
      "sensors": 7333,
      "Club": 7334,
      "vessels": 7335,
      "reputation": 7336,
      "AT": 7337,
      "bind": 7338,
      "##oons": 7339,
      "##wich": 7340,
      "##aled": 7341,
      "stamp": 7342,
      "hello": 7343,
      "##ails": 7344,
      "collapse": 7345,
      "Indust": 7346,
      "elsewhere": 7347,
      "Argent": 7348,
      "cheaper": 7349,
      "painted": 7350,
      "recording": 7351,
      "volunteers": 7352,
      "shadow": 7353,
      "Had": 7354,
      "Post": 7355,
      "hits": 7356,
      "waters": 7357,
      "suck": 7358,
      "##ieur": 7359,
      "##itty": 7360,
      "impress": 7361,
      "##heim": 7362,
      "##ials": 7363,
      "flash": 7364,
      "Ash": 7365,
      "kidding": 7366,
      "devil": 7367,
      "expecting": 7368,
      "printed": 7369,
      "crucial": 7370,
      "administration": 7371,
      "recyc": 7372,
      "punishment": 7373,
      "Educ": 7374,
      "Mel": 7375,
      "civ": 7376,
      "tor": 7377,
      "##mes": 7378,
      "##sem": 7379,
      "stages": 7380,
      "storage": 7381,
      "##outs": 7382,
      "deserve": 7383,
      "computing": 7384,
      "1980": 7385,
      "multi": 7386,
      "platforms": 7387,
      "Fund": 7388,
      "Oce": 7389,
      "sons": 7390,
      "western": 7391,
      "##ville": 7392,
      "##30": 7393,
      "##ester": 7394,
      "##icks": 7395,
      "recall": 7396,
      "trains": 7397,
      "smooth": 7398,
      "regional": 7399,
      "silk": 7400,
      "molecular": 7401,
      "manufactur": 7402,
      "Philipp": 7403,
      "dimensions": 7404,
      "bicycle": 7405,
      "Public": 7406,
      "Sk": 7407,
      "items": 7408,
      "Whether": 7409,
      "unemploy": 7410,
      "##obile": 7411,
      "##onsieur": 7412,
      "##cont": 7413,
      "imagined": 7414,
      "label": 7415,
      "falls": 7416,
      "cops": 7417,
      "threats": 7418,
      "Adm": 7419,
      "delivery": 7420,
      "hoped": 7421,
      "Barb": 7422,
      "encounter": 7423,
      "Nigeria": 7424,
      "divorce": 7425,
      "bombs": 7426,
      "sacrif": 7427,
      "48": 7428,
      "Oper": 7429,
      "PC": 7430,
      "Things": 7431,
      "aside": 7432,
      "chest": 7433,
      "Soon": 7434,
      "agent": 7435,
      "nowhere": 7436,
      "loving": 7437,
      "symm": 7438,
      "##onsense": 7439,
      "monkey": 7440,
      "2018": 7441,
      "extensive": 7442,
      "##gged": 7443,
      "supporting": 7444,
      "treaty": 7445,
      "filter": 7446,
      "investors": 7447,
      "raising": 7448,
      "trading": 7449,
      "performing": 7450,
      "taxi": 7451,
      "transformed": 7452,
      "madam": 7453,
      "viruses": 7454,
      "liberal": 7455,
      "vacation": 7456,
      "guarantee": 7457,
      "scratch": 7458,
      "earthquake": 7459,
      "rent": 7460,
      "##rates": 7461,
      "##arn": 7462,
      "doors": 7463,
      "perpet": 7464,
      "writers": 7465,
      "mustn": 7466,
      "collaps": 7467,
      "breaks": 7468,
      "picking": 7469,
      "sufficient": 7470,
      "survived": 7471,
      "##adesh": 7472,
      "sunlight": 7473,
      "experiencing": 7474,
      "##ettes": 7475,
      "laughing": 7476,
      "##itzer": 7477,
      "accomplish": 7478,
      "dignity": 7479,
      "lapt": 7480,
      "roles": 7481,
      "yield": 7482,
      "##hen": 7483,
      "goodbye": 7484,
      "evolve": 7485,
      "bask": 7486,
      "creature": 7487,
      "adding": 7488,
      "##pring": 7489,
      "drivers": 7490,
      "walks": 7491,
      "deliber": 7492,
      "Twenty": 7493,
      "accessible": 7494,
      "experimental": 7495,
      "executive": 7496,
      "rescue": 7497,
      "conventional": 7498,
      "Meanwhile": 7499,
      "Hait": 7500,
      "Power": 7501,
      "Sa": 7502,
      "ment": 7503,
      "nom": 7504,
      "##atre": 7505,
      "whist": 7506,
      "##ements": 7507,
      "peak": 7508,
      "clothing": 7509,
      "sac": 7510,
      "overse": 7511,
      "polar": 7512,
      "relatives": 7513,
      "nights": 7514,
      "autism": 7515,
      "authent": 7516,
      "entering": 7517,
      "enterpr": 7518,
      "worrying": 7519,
      "precisely": 7520,
      "55": 7521,
      "Dam": 7522,
      "Mem": 7523,
      "Nether": 7524,
      "dumb": 7525,
      "sought": 7526,
      "vary": 7527,
      "##onder": 7528,
      "##zens": 7529,
      "##itual": 7530,
      "##eters": 7531,
      "##uration": 7532,
      "poly": 7533,
      "accum": 7534,
      "simult": 7535,
      "boats": 7536,
      "charged": 7537,
      "immigration": 7538,
      "activists": 7539,
      "feeding": 7540,
      "improvement": 7541,
      "journalists": 7542,
      "Majesty": 7543,
      "rhyth": 7544,
      "boo": 7545,
      "hired": 7546,
      "jury": 7547,
      "##RA": 7548,
      "##va": 7549,
      "##utor": 7550,
      "##raine": 7551,
      "comprom": 7552,
      "continu": 7553,
      "craft": 7554,
      "reducing": 7555,
      "editor": 7556,
      "inspiration": 7557,
      "Secret": 7558,
      "baseball": 7559,
      "frequency": 7560,
      "hunting": 7561,
      "corporate": 7562,
      "Linux": 7563,
      "##igenous": 7564,
      "parallel": 7565,
      "IP": 7566,
      "Zeal": 7567,
      "dies": 7568,
      "trop": 7569,
      "##bling": 7570,
      "##isons": 7571,
      "##oma": 7572,
      "##ota": 7573,
      "##illance": 7574,
      "##asty": 7575,
      "descend": 7576,
      "thirds": 7577,
      "Syrian": 7578,
      "spreading": 7579,
      "characteristics": 7580,
      "belongs": 7581,
      "celebrate": 7582,
      "paintings": 7583,
      "thrown": 7584,
      "satellites": 7585,
      "ashamed": 7586,
      "Scotland": 7587,
      "Bay": 7588,
      "Bell": 7589,
      "Ein": 7590,
      "Ly": 7591,
      "Run": 7592,
      "Were": 7593,
      "cave": 7594,
      "##eer": 7595,
      "##icity": 7596,
      "outbre": 7597,
      "curve": 7598,
      "Indeed": 7599,
      "combine": 7600,
      "Plan": 7601,
      "talent": 7602,
      "athlet": 7603,
      "iPh": 7604,
      "Service": 7605,
      "Netherlands": 7606,
      "46": 7607,
      "Bol": 7608,
      "Cop": 7609,
      "Sub": 7610,
      "fate": 7611,
      "rating": 7612,
      "##zer": 7613,
      "##urning": 7614,
      "##rod": 7615,
      "spark": 7616,
      "engin": 7617,
      "aging": 7618,
      "adap": 7619,
      "interf": 7620,
      "idiot": 7621,
      "affairs": 7622,
      "reasonable": 7623,
      "pencil": 7624,
      "spiritual": 7625,
      "floating": 7626,
      "embrace": 7627,
      "CEO": 7628,
      "Bible": 7629,
      "Ol": 7630,
      "fancy": 7631,
      "wings": 7632,
      "##bul": 7633,
      "tooth": 7634,
      "##lla": 7635,
      "bee": 7636,
      "stake": 7637,
      "butter": 7638,
      "royal": 7639,
      "##onscious": 7640,
      "branch": 7641,
      "homeless": 7642,
      "informed": 7643,
      "healthcare": 7644,
      "##print": 7645,
      "occurs": 7646,
      "communications": 7647,
      "impacts": 7648,
      "entertainment": 7649,
      "tongue": 7650,
      "Leg": 7651,
      "Tele": 7652,
      "nerve": 7653,
      "tact": 7654,
      "##nis": 7655,
      "##vas": 7656,
      "##PR": 7657,
      "inject": 7658,
      "contained": 7659,
      "##formation": 7660,
      "traged": 7661,
      "flies": 7662,
      "acid": 7663,
      "##azz": 7664,
      "follows": 7665,
      "Beij": 7666,
      "controls": 7667,
      "receiving": 7668,
      "focusing": 7669,
      "appearance": 7670,
      "periods": 7671,
      "steal": 7672,
      "Christians": 7673,
      "psychology": 7674,
      "demands": 7675,
      "enemies": 7676,
      "Martin": 7677,
      "Zealand": 7678,
      "HT": 7679,
      "Sum": 7680,
      "dump": 7681,
      "session": 7682,
      "ven": 7683,
      "##fect": 7684,
      "##allow": 7685,
      "##ador": 7686,
      "##opia": 7687,
      "##igm": 7688,
      "spons": 7689,
      "pride": 7690,
      "interrupt": 7691,
      "poem": 7692,
      "serving": 7693,
      "identical": 7694,
      "camps": 7695,
      "employed": 7696,
      "Trade": 7697,
      "circuit": 7698,
      "struggling": 7699,
      "bullet": 7700,
      "minimum": 7701,
      "attached": 7702,
      "infinite": 7703,
      "Global": 7704,
      "Darling": 7705,
      "Won": 7706,
      "jack": 7707,
      "loose": 7708,
      "reverse": 7709,
      "##udes": 7710,
      "extrem": 7711,
      "margin": 7712,
      "organism": 7713,
      "184": 7714,
      "collecting": 7715,
      "injury": 7716,
      "surrounding": 7717,
      "heavily": 7718,
      "Einstein": 7719,
      "Fort": 7720,
      "Hy": 7721,
      "dots": 7722,
      "rif": 7723,
      "thy": 7724,
      "seeking": 7725,
      "exped": 7726,
      "asks": 7727,
      "lands": 7728,
      "treatments": 7729,
      "senses": 7730,
      "enjoyed": 7731,
      "jumped": 7732,
      "kingdom": 7733,
      "consequence": 7734,
      "gathered": 7735,
      "boundaries": 7736,
      "tower": 7737,
      "administr": 7738,
      "fuels": 7739,
      "Virgin": 7740,
      "engines": 7741,
      "Bea": 7742,
      "##pread": 7743,
      "##inity": 7744,
      "##etical": 7745,
      "stab": 7746,
      "liver": 7747,
      "selection": 7748,
      "agents": 7749,
      "partly": 7750,
      "impl": 7751,
      "##icked": 7752,
      "underwater": 7753,
      "reliable": 7754,
      "gray": 7755,
      "remembered": 7756,
      "protecting": 7757,
      "dependent": 7758,
      "1950s": 7759,
      "tracks": 7760,
      "victory": 7761,
      "conflicts": 7762,
      "Norway": 7763,
      "Northern": 7764,
      "tickets": 7765,
      "ignore": 7766,
      "substant": 7767,
      "arguments": 7768,
      "bathroom": 7769,
      "registered": 7770,
      "explosion": 7771,
      "puzzle": 7772,
      "Florida": 7773,
      "Palestin": 7774,
      "principal": 7775,
      "Monday": 7776,
      "Hol": 7777,
      "Much": 7778,
      "Sup": 7779,
      "merg": 7780,
      "##aci": 7781,
      "##vation": 7782,
      "##reh": 7783,
      "chrom": 7784,
      "alph": 7785,
      "whereas": 7786,
      "attitude": 7787,
      "accomp": 7788,
      "Ask": 7789,
      "##idespread": 7790,
      "Phill": 7791,
      "reduction": 7792,
      "hyper": 7793,
      "cruel": 7794,
      "implemented": 7795,
      "prototype": 7796,
      "excellent": 7797,
      "album": 7798,
      "sophisticated": 7799,
      "47": 7800,
      "Dec": 7801,
      "Read": 7802,
      "cott": 7803,
      "dough": 7804,
      "##PI": 7805,
      "angel": 7806,
      "dozens": 7807,
      "orange": 7808,
      "##unction": 7809,
      "theme": 7810,
      "instinct": 7811,
      "assigned": 7812,
      "Africans": 7813,
      "engaging": 7814,
      "bike": 7815,
      "annoy": 7816,
      "temporary": 7817,
      "daughters": 7818,
      "strategic": 7819,
      "targets": 7820,
      "Greece": 7821,
      "nutri": 7822,
      "concentration": 7823,
      "Georgia": 7824,
      "Beijing": 7825,
      "Sher": 7826,
      "Year": 7827,
      "males": 7828,
      "##nda": 7829,
      "##oral": 7830,
      "##ads": 7831,
      "prohib": 7832,
      "Ass": 7833,
      "regulations": 7834,
      "locations": 7835,
      "legit": 7836,
      "difficulty": 7837,
      "##apping": 7838,
      "digit": 7839,
      "observe": 7840,
      "peaceful": 7841,
      "attempts": 7842,
      "translation": 7843,
      "translate": 7844,
      "miracle": 7845,
      "tunnel": 7846,
      "frightened": 7847,
      "revenue": 7848,
      "Indonesia": 7849,
      "CD": 7850,
      "Home": 7851,
      "##jan": 7852,
      "stored": 7853,
      "hem": 7854,
      "##aval": 7855,
      "Forget": 7856,
      "correl": 7857,
      "resulted": 7858,
      "tracking": 7859,
      "ultimate": 7860,
      "virtually": 7861,
      "maintained": 7862,
      "samples": 7863,
      "diagnosed": 7864,
      "lawyers": 7865,
      "advertising": 7866,
      "neutral": 7867,
      "Pretty": 7868,
      "Ok": 7869,
      "Scient": 7870,
      "rose": 7871,
      "##nov": 7872,
      "stack": 7873,
      "precious": 7874,
      "genius": 7875,
      "developers": 7876,
      "extension": 7877,
      "Friday": 7878,
      "grave": 7879,
      "resulting": 7880,
      "files": 7881,
      "operated": 7882,
      "drinks": 7883,
      "1945": 7884,
      "greenhouse": 7885,
      "silver": 7886,
      "soup": 7887,
      "hopes": 7888,
      "description": 7889,
      "terrorism": 7890,
      "subsequently": 7891,
      "Certainly": 7892,
      "44": 7893,
      "64": 7894,
      "Gh": 7895,
      "ST": 7896,
      "pardon": 7897,
      "##ML": 7898,
      "##edy": 7899,
      "##ano": 7900,
      "feat": 7901,
      "exposure": 7902,
      "impression": 7903,
      "transact": 7904,
      "Prin": 7905,
      "reforms": 7906,
      "Steven": 7907,
      "apparently": 7908,
      "ingred": 7909,
      "basket": 7910,
      "lin": 7911,
      "ray": 7912,
      "ritual": 7913,
      "wra": 7914,
      "##town": 7915,
      "##ek": 7916,
      "inqu": 7917,
      "##ada": 7918,
      "##agne": 7919,
      "loyal": 7920,
      "guards": 7921,
      "regime": 7922,
      "meter": 7923,
      "respective": 7924,
      "organize": 7925,
      "pretend": 7926,
      "Margar": 7927,
      "sentences": 7928,
      "sooner": 7929,
      "Prob": 7930,
      "Except": 7931,
      "burst": 7932,
      "detailed": 7933,
      "mechanical": 7934,
      "denied": 7935,
      "selected": 7936,
      "tanks": 7937,
      "candidates": 7938,
      "synthetic": 7939,
      "Walter": 7940,
      "Hitler": 7941,
      "Rog": 7942,
      "Ruth": 7943,
      "Way": 7944,
      "Want": 7945,
      "bored": 7946,
      "fur": 7947,
      "rope": 7948,
      "rivers": 7949,
      "sin": 7950,
      "widespread": 7951,
      "##gic": 7952,
      "##omous": 7953,
      "##opher": 7954,
      "##umes": 7955,
      "actors": 7956,
      "clar": 7957,
      "relief": 7958,
      "monitor": 7959,
      "regularly": 7960,
      "publicly": 7961,
      "closing": 7962,
      "Columb": 7963,
      "Board": 7964,
      "implications": 7965,
      "Business": 7966,
      "Society": 7967,
      "bust": 7968,
      "cable": 7969,
      "density": 7970,
      "ped": 7971,
      "##hin": 7972,
      "##CA": 7973,
      "##10": 7974,
      "soap": 7975,
      "enzy": 7976,
      "sheet": 7977,
      "lets": 7978,
      "insight": 7979,
      "Always": 7980,
      "Being": 7981,
      "observation": 7982,
      "offering": 7983,
      "contributed": 7984,
      "fleet": 7985,
      "estimates": 7986,
      "fluid": 7987,
      "attractive": 7988,
      "surveillance": 7989,
      "frankly": 7990,
      "entrance": 7991,
      "Tam": 7992,
      "mand": 7993,
      "ants": 7994,
      "chronic": 7995,
      "##eman": 7996,
      "actor": 7997,
      "roots": 7998,
      "particle": 7999,
      "Tommy": 8000,
      "##lessly": 8001,
      "##attan": 8002,
      "funded": 8003,
      "120": 8004,
      "commonly": 8005,
      "millenn": 8006,
      "bedroom": 8007,
      "magnetic": 8008,
      "Sergeant": 8009,
      "fortune": 8010,
      "gods": 8011,
      "Joseph": 8012,
      "Academy": 8013,
      "Fore": 8014,
      "Jord": 8015,
      "Nap": 8016,
      "hire": 8017,
      "rape": 8018,
      "##BI": 8019,
      "therm": 8020,
      "recept": 8021,
      "##idges": 8022,
      "##adel": 8023,
      "shout": 8024,
      "##estyle": 8025,
      "spr": 8026,
      "Stella": 8027,
      "humor": 8028,
      "courts": 8029,
      "mode": 8030,
      "craw": 8031,
      "expectations": 8032,
      "functional": 8033,
      "journalist": 8034,
      "mysterious": 8035,
      "Ocean": 8036,
      "Da": 8037,
      "Haven": 8038,
      "Os": 8039,
      "bon": 8040,
      "gest": 8041,
      "owe": 8042,
      "punch": 8043,
      "##DF": 8044,
      "##BM": 8045,
      "##organ": 8046,
      "##omers": 8047,
      "##icial": 8048,
      "##amber": 8049,
      "sew": 8050,
      "aspir": 8051,
      "excess": 8052,
      "chimp": 8053,
      "##unicip": 8054,
      "guest": 8055,
      "Unlike": 8056,
      "##ibl": 8057,
      "##awa": 8058,
      "personnel": 8059,
      "planes": 8060,
      "Short": 8061,
      "185": 8062,
      "condem": 8063,
      "tennis": 8064,
      "crossing": 8065,
      "mechanisms": 8066,
      "passionate": 8067,
      "Antar": 8068,
      "Square": 8069,
      "dictionary": 8070,
      "Probably": 8071,
      "Av": 8072,
      "Around": 8073,
      "Pen": 8074,
      "Typ": 8075,
      "airl": 8076,
      "hated": 8077,
      "##hand": 8078,
      "thor": 8079,
      "##keys": 8080,
      "##ortion": 8081,
      "##iac": 8082,
      "##anges": 8083,
      "##ologically": 8084,
      "produces": 8085,
      "surely": 8086,
      "globally": 8087,
      "Switzer": 8088,
      "touched": 8089,
      "covering": 8090,
      "railroad": 8091,
      "unlikely": 8092,
      "jewel": 8093,
      "85": 8094,
      "aunt": 8095,
      "##lines": 8096,
      "##oard": 8097,
      "##BT": 8098,
      "##itage": 8099,
      "beating": 8100,
      "##roid": 8101,
      "anonym": 8102,
      "##emen": 8103,
      "enth": 8104,
      "consists": 8105,
      "evac": 8106,
      "lasted": 8107,
      "listed": 8108,
      "1988": 8109,
      "towns": 8110,
      "competitive": 8111,
      "connecting": 8112,
      "farms": 8113,
      "council": 8114,
      "analog": 8115,
      "merch": 8116,
      "cartoon": 8117,
      "apologize": 8118,
      "enforcement": 8119,
      "Cambod": 8120,
      "iPhone": 8121,
      "Switzerland": 8122,
      "AC": 8123,
      "Half": 8124,
      "Jen": 8125,
      "Lith": 8126,
      "Mass": 8127,
      "gram": 8128,
      "util": 8129,
      "##lv": 8130,
      "##do": 8131,
      "##uties": 8132,
      "reck": 8133,
      "meg": 8134,
      "abund": 8135,
      "lend": 8136,
      "resident": 8137,
      "helpful": 8138,
      "greatly": 8139,
      "farmer": 8140,
      "refuse": 8141,
      "favour": 8142,
      "Swiss": 8143,
      "domain": 8144,
      "discussed": 8145,
      "Quite": 8146,
      "requirements": 8147,
      "Democratic": 8148,
      "survivors": 8149,
      "ghost": 8150,
      "surrender": 8151,
      "Victor": 8152,
      "Bush": 8153,
      "Cross": 8154,
      "Eb": 8155,
      "Ext": 8156,
      "lit": 8157,
      "sne": 8158,
      "islands": 8159,
      "stability": 8160,
      "angle": 8161,
      "outs": 8162,
      "newly": 8163,
      "##ifications": 8164,
      "stops": 8165,
      "18th": 8166,
      "##ashed": 8167,
      "##lfare": 8168,
      "awesome": 8169,
      "179": 8170,
      "amongst": 8171,
      "participation": 8172,
      "portion": 8173,
      "earliest": 8174,
      "banned": 8175,
      "garage": 8176,
      "cortex": 8177,
      "Dear": 8178,
      "Kat": 8179,
      "pity": 8180,
      "##hi": 8181,
      "##EA": 8182,
      "##da": 8183,
      "##HER": 8184,
      "##itar": 8185,
      "forb": 8186,
      "dol": 8187,
      "seeds": 8188,
      "##essions": 8189,
      "unw": 8190,
      "fled": 8191,
      "param": 8192,
      "safely": 8193,
      "cyber": 8194,
      "links": 8195,
      "bags": 8196,
      "maximum": 8197,
      "deleg": 8198,
      "inhabit": 8199,
      "Education": 8200,
      "Supreme": 8201,
      "Far": 8202,
      "Hun": 8203,
      "Java": 8204,
      "bite": 8205,
      "bump": 8206,
      "lux": 8207,
      "nic": 8208,
      "##fire": 8209,
      "##uine": 8210,
      "##OR": 8211,
      "toy": 8212,
      "##lly": 8213,
      "seed": 8214,
      "caps": 8215,
      "eastern": 8216,
      "patent": 8217,
      "returns": 8218,
      "improving": 8219,
      "Manh": 8220,
      "pulling": 8221,
      "representative": 8222,
      "emerged": 8223,
      "errors": 8224,
      "vaccines": 8225,
      "Belg": 8226,
      "transmission": 8227,
      "shelter": 8228,
      "Technology": 8229,
      "Rock": 8230,
      "gig": 8231,
      "someday": 8232,
      "##oir": 8233,
      "##alty": 8234,
      "ham": 8235,
      "convert": 8236,
      "intend": 8237,
      "fever": 8238,
      "twe": 8239,
      "##seless": 8240,
      "flour": 8241,
      "governance": 8242,
      "entry": 8243,
      "Justice": 8244,
      "estate": 8245,
      "Peace": 8246,
      "assumptions": 8247,
      "voted": 8248,
      "occupied": 8249,
      "criticism": 8250,
      "commitment": 8251,
      "concluded": 8252,
      "disgust": 8253,
      "dismiss": 8254,
      "Ladies": 8255,
      "##ographer": 8256,
      "43": 8257,
      "Lis": 8258,
      "sink": 8259,
      "veter": 8260,
      "##ladesh": 8261,
      "##erry": 8262,
      "##estival": 8263,
      "##ulse": 8264,
      "downstairs": 8265,
      "attended": 8266,
      "warn": 8267,
      "pointed": 8268,
      "landed": 8269,
      "speaker": 8270,
      "Conf": 8271,
      "facility": 8272,
      "fastest": 8273,
      "checked": 8274,
      "##edded": 8275,
      "tricks": 8276,
      "Bangladesh": 8277,
      "mammals": 8278,
      "ownership": 8279,
      "##osaurs": 8280,
      "Nazi": 8281,
      "observations": 8282,
      "Balt": 8283,
      "Doc": 8284,
      "Er": 8285,
      "besides": 8286,
      "migrants": 8287,
      "##gu": 8288,
      "##erate": 8289,
      "##itement": 8290,
      "##char": 8291,
      "sheep": 8292,
      "bless": 8293,
      "##phones": 8294,
      "indigenous": 8295,
      "##ricane": 8296,
      "formation": 8297,
      "cream": 8298,
      "grain": 8299,
      "180": 8300,
      "constit": 8301,
      "wishes": 8302,
      "assumed": 8303,
      "churches": 8304,
      "Israeli": 8305,
      "ignor": 8306,
      "Arabic": 8307,
      "savings": 8308,
      "installed": 8309,
      "dialogue": 8310,
      "telescope": 8311,
      "Detro": 8312,
      "Turkish": 8313,
      "dolph": 8314,
      "Manhattan": 8315,
      "Down": 8316,
      "Ot": 8317,
      "##rent": 8318,
      "##rest": 8319,
      "##EL": 8320,
      "##vis": 8321,
      "##esp": 8322,
      "##oto": 8323,
      "##iffer": 8324,
      "outer": 8325,
      "##peror": 8326,
      "trail": 8327,
      "powered": 8328,
      "metab": 8329,
      "entit": 8330,
      "skull": 8331,
      "colony": 8332,
      "Dev": 8333,
      "listened": 8334,
      "presentation": 8335,
      "traditions": 8336,
      "Prince": 8337,
      "volcan": 8338,
      "visitors": 8339,
      "earned": 8340,
      "McK": 8341,
      "dawn": 8342,
      "clinic": 8343,
      "Colle": 8344,
      "candidate": 8345,
      "professionals": 8346,
      "Iceland": 8347,
      "chromos": 8348,
      "Margaret": 8349,
      "AM": 8350,
      "Event": 8351,
      "Walk": 8352,
      "ow": 8353,
      "##war": 8354,
      "##edge": 8355,
      "##anches": 8356,
      "##omin": 8357,
      "##asp": 8358,
      "bend": 8359,
      "##uled": 8360,
      "chip": 8361,
      "##ieve": 8362,
      "manif": 8363,
      "aggress": 8364,
      "guests": 8365,
      "retreat": 8366,
      "returning": 8367,
      "Show": 8368,
      "Maria": 8369,
      "treating": 8370,
      "racial": 8371,
      "encry": 8372,
      "microb": 8373,
      "participated": 8374,
      "capitalism": 8375,
      "pleased": 8376,
      "predicted": 8377,
      "cryst": 8378,
      "##acco": 8379,
      "transferred": 8380,
      "lungs": 8381,
      "procedure": 8382,
      "trauma": 8383,
      "Ellen": 8384,
      "sacred": 8385,
      "39": 8386,
      "Bi": 8387,
      "Same": 8388,
      "fires": 8389,
      "pip": 8390,
      "##rition": 8391,
      "##reens": 8392,
      "##che": 8393,
      "stairs": 8394,
      "spell": 8395,
      "intr": 8396,
      "compat": 8397,
      "compos": 8398,
      "##phia": 8399,
      "genuine": 8400,
      "##aws": 8401,
      "opens": 8402,
      "storyt": 8403,
      "passw": 8404,
      "classic": 8405,
      "##archy": 8406,
      "obsessed": 8407,
      "civilians": 8408,
      "employment": 8409,
      "intervention": 8410,
      "voters": 8411,
      "fraud": 8412,
      "Eliz": 8413,
      "Ukraine": 8414,
      "Darwin": 8415,
      "orchest": 8416,
      "tragedy": 8417,
      "Offic": 8418,
      "Tri": 8419,
      "dot": 8420,
      "dense": 8421,
      "gam": 8422,
      "##west": 8423,
      "##onic": 8424,
      "##rous": 8425,
      "bucks": 8426,
      "##erman": 8427,
      "speakers": 8428,
      "1985": 8429,
      "responses": 8430,
      "Johnson": 8431,
      "secrets": 8432,
      "representation": 8433,
      "Guard": 8434,
      "Danny": 8435,
      "Swedish": 8436,
      "Moz": 8437,
      "cousin": 8438,
      "sacrifice": 8439,
      "Mama": 8440,
      "Ox": 8441,
      "Rose": 8442,
      "lately": 8443,
      "##rimin": 8444,
      "##tes": 8445,
      "##itudes": 8446,
      "render": 8447,
      "##itionally": 8448,
      "##licit": 8449,
      "insane": 8450,
      "farming": 8451,
      "Shan": 8452,
      "marks": 8453,
      "marked": 8454,
      "charity": 8455,
      "alongside": 8456,
      "failing": 8457,
      "measuring": 8458,
      "admitted": 8459,
      "interactive": 8460,
      "approaches": 8461,
      "circles": 8462,
      "briefly": 8463,
      "trigger": 8464,
      "Hotel": 8465,
      "stroke": 8466,
      "Wikip": 8467,
      "Must": 8468,
      "Ori": 8469,
      "cin": 8470,
      "patch": 8471,
      "##li": 8472,
      "##occ": 8473,
      "##bour": 8474,
      "##oded": 8475,
      "safer": 8476,
      "##orney": 8477,
      "capability": 8478,
      "subur": 8479,
      "grant": 8480,
      "exploring": 8481,
      "depressed": 8482,
      "landing": 8483,
      "biom": 8484,
      "1975": 8485,
      "##steroid": 8486,
      "sandwich": 8487,
      "colonial": 8488,
      "odds": 8489,
      "satisfied": 8490,
      "categories": 8491,
      "transparency": 8492,
      "choosing": 8493,
      "72": 8494,
      "Hmm": 8495,
      "Wars": 8496,
      "drew": 8497,
      "lens": 8498,
      "naked": 8499,
      "riding": 8500,
      "##oust": 8501,
      "##lyn": 8502,
      "leap": 8503,
      "...\"": 8504,
      "export": 8505,
      "twelve": 8506,
      "underlying": 8507,
      "trace": 8508,
      "traff": 8509,
      "provin": 8510,
      "profile": 8511,
      "equation": 8512,
      "directions": 8513,
      "tempt": 8514,
      "copies": 8515,
      "burden": 8516,
      "psychiat": 8517,
      "judgment": 8518,
      "package": 8519,
      "consistent": 8520,
      "anxious": 8521,
      "paradox": 8522,
      "exhibition": 8523,
      "negotiations": 8524,
      "controlling": 8525,
      "antibiotics": 8526,
      "casual": 8527,
      "##adelphia": 8528,
      "Wikipedia": 8529,
      "Camp": 8530,
      "Tel": 8531,
      "laser": 8532,
      "##aving": 8533,
      "##life": 8534,
      "##ON": 8535,
      "abol": 8536,
      "deck": 8537,
      "##ckets": 8538,
      "smarter": 8539,
      "girlfriend": 8540,
      "restore": 8541,
      "Beat": 8542,
      "answered": 8543,
      "throwing": 8544,
      "pleasant": 8545,
      "Philadelphia": 8546,
      "Egyptian": 8547,
      "Denmark": 8548,
      "simultaneously": 8549,
      "aer": 8550,
      "nerves": 8551,
      "pink": 8552,
      "##view": 8553,
      "##ati": 8554,
      "sevent": 8555,
      "alter": 8556,
      "##aches": 8557,
      "sav": 8558,
      "##iley": 8559,
      "Alan": 8560,
      "maid": 8561,
      "assets": 8562,
      "figuring": 8563,
      "dinosaurs": 8564,
      "introduction": 8565,
      "garbage": 8566,
      "minority": 8567,
      "##connected": 8568,
      "subsid": 8569,
      "frozen": 8570,
      "enthus": 8571,
      "BG": 8572,
      "Div": 8573,
      "Friend": 8574,
      "Gar": 8575,
      "Santa": 8576,
      "bars": 8577,
      "tune": 8578,
      "##bled": 8579,
      "##viously": 8580,
      "##MS": 8581,
      "heroes": 8582,
      "##active": 8583,
      "##pled": 8584,
      "highlight": 8585,
      "kidna": 8586,
      "explains": 8587,
      "woke": 8588,
      "USA": 8589,
      "arranged": 8590,
      "compete": 8591,
      "nuts": 8592,
      "colonies": 8593,
      "trucks": 8594,
      "bubble": 8595,
      "Senate": 8596,
      "uncertainty": 8597,
      ".'": 8598,
      "Hope": 8599,
      "Ug": 8600,
      "Woman": 8601,
      "bisc": 8602,
      "duck": 8603,
      "mice": 8604,
      "##FC": 8605,
      "whales": 8606,
      "##ghter": 8607,
      "anat": 8608,
      "shake": 8609,
      "##agen": 8610,
      "unn": 8611,
      "resem": 8612,
      "contrad": 8613,
      "forming": 8614,
      "##aza": 8615,
      "excitement": 8616,
      "awake": 8617,
      "revol": 8618,
      "##oked": 8619,
      "diabet": 8620,
      "crossed": 8621,
      "##ommod": 8622,
      "foolish": 8623,
      "lifestyle": 8624,
      "expanding": 8625,
      "wealthy": 8626,
      "regardless": 8627,
      "succeeded": 8628,
      "category": 8629,
      "elephant": 8630,
      "Irish": 8631,
      "LGBT": 8632,
      "Lake": 8633,
      "Mand": 8634,
      "Penn": 8635,
      "Ros": 8636,
      "jur": 8637,
      "##ington": 8638,
      "inch": 8639,
      "Thomas": 8640,
      "##tery": 8641,
      "shower": 8642,
      "##rag": 8643,
      "orph": 8644,
      "##ardens": 8645,
      "Insp": 8646,
      "##ogram": 8647,
      "persons": 8648,
      "factories": 8649,
      "protests": 8650,
      "Indians": 8651,
      "discoveries": 8652,
      "propag": 8653,
      "trends": 8654,
      "logical": 8655,
      "investigate": 8656,
      "ethical": 8657,
      "regarding": 8658,
      "Williams": 8659,
      "converted": 8660,
      "holiday": 8661,
      "occasionally": 8662,
      "microscope": 8663,
      "Eventually": 8664,
      "Aut": 8665,
      "FAT": 8666,
      "Kent": 8667,
      "Leb": 8668,
      "Wonder": 8669,
      "bond": 8670,
      "bills": 8671,
      "fence": 8672,
      "##ige": 8673,
      "##oh": 8674,
      "##etary": 8675,
      "ongoing": 8676,
      "##oos": 8677,
      "assemb": 8678,
      "##rix": 8679,
      "exceed": 8680,
      "spare": 8681,
      "composed": 8682,
      "actively": 8683,
      "queen": 8684,
      "coinc": 8685,
      "##ighter": 8686,
      "##engu": 8687,
      "salary": 8688,
      "Quick": 8689,
      "losses": 8690,
      "opinions": 8691,
      "motivated": 8692,
      "withdraw": 8693,
      "unhappy": 8694,
      "weekend": 8695,
      "Eight": 8696,
      "Hosp": 8697,
      "IC": 8698,
      "cattle": 8699,
      "porn": 8700,
      "tub": 8701,
      "##aved": 8702,
      "##eff": 8703,
      "tob": 8704,
      "wore": 8705,
      "union": 8706,
      "coin": 8707,
      "accommod": 8708,
      "Anna": 8709,
      "transpl": 8710,
      "regul": 8711,
      "stays": 8712,
      "biod": 8713,
      "profits": 8714,
      "Austria": 8715,
      "League": 8716,
      "indicate": 8717,
      "diagnosis": 8718,
      "Corpor": 8719,
      "Jordan": 8720,
      "41": 8721,
      "Dun": 8722,
      "GPS": 8723,
      "diver": 8724,
      "mim": 8725,
      "##kin": 8726,
      "##orious": 8727,
      "##ician": 8728,
      "##ali": 8729,
      "Anderson": 8730,
      "abilities": 8731,
      "enabled": 8732,
      "##assy": 8733,
      "backwards": 8734,
      "##ateral": 8735,
      "counting": 8736,
      "surgeon": 8737,
      "instant": 8738,
      "funeral": 8739,
      "Leon": 8740,
      "Adam": 8741,
      "layers": 8742,
      "responded": 8743,
      "cigarettes": 8744,
      "sharks": 8745,
      "nurses": 8746,
      "##belie": 8747,
      "Detroit": 8748,
      "Aw": 8749,
      "Book": 8750,
      "Know": 8751,
      "Mong": 8752,
      "OS": 8753,
      "Ton": 8754,
      "Tim": 8755,
      "dating": 8756,
      "gases": 8757,
      "golf": 8758,
      "##lor": 8759,
      "##lar": 8760,
      "##wan": 8761,
      "##erge": 8762,
      "##iner": 8763,
      "infer": 8764,
      "forec": 8765,
      "##ima": 8766,
      "##adays": 8767,
      "butt": 8768,
      "compreh": 8769,
      "blast": 8770,
      "trap": 8771,
      "brut": 8772,
      "relate": 8773,
      "visiting": 8774,
      "News": 8775,
      "1987": 8776,
      "specialized": 8777,
      "geomet": 8778,
      "Wouldn": 8779,
      "femin": 8780,
      "improvements": 8781,
      "III": 8782,
      "appointment": 8783,
      "washed": 8784,
      "restrictions": 8785,
      "escaped": 8786,
      "toilet": 8787,
      "monitoring": 8788,
      "Ang": 8789,
      "Carl": 8790,
      "Fe": 8791,
      "Sn": 8792,
      "Wr": 8793,
      "cam": 8794,
      "##imal": 8795,
      "heal": 8796,
      "##rie": 8797,
      "sphere": 8798,
      "##ours": 8799,
      "explicit": 8800,
      "governor": 8801,
      "lighting": 8802,
      "foods": 8803,
      "swell": 8804,
      "probability": 8805,
      "Marc": 8806,
      "1986": 8807,
      "facil": 8808,
      "murderer": 8809,
      "architects": 8810,
      "neighborhoods": 8811,
      "controversial": 8812,
      "fertil": 8813,
      "Furthermore": 8814,
      "Haiti": 8815,
      "tobacco": 8816,
      "Hu": 8817,
      "Land": 8818,
      "Others": 8819,
      "Pier": 8820,
      "Rw": 8821,
      "py": 8822,
      "zoom": 8823,
      "##xual": 8824,
      "##zes": 8825,
      "##atoes": 8826,
      "whale": 8827,
      "Thurs": 8828,
      "##imeter": 8829,
      "##through": 8830,
      "##ado": 8831,
      "cance": 8832,
      "##ema": 8833,
      "##osl": 8834,
      "intro": 8835,
      "invasion": 8836,
      "glaci": 8837,
      "classical": 8838,
      "Engine": 8839,
      "Bye": 8840,
      "1970": 8841,
      "authors": 8842,
      "civilian": 8843,
      "reactions": 8844,
      "votes": 8845,
      "symbols": 8846,
      "establishment": 8847,
      "dominant": 8848,
      "Elect": 8849,
      "Find": 8850,
      "Together": 8851,
      "asteroid": 8852,
      "gif": 8853,
      "tape": 8854,
      "##lan": 8855,
      "welfare": 8856,
      "stere": 8857,
      "dece": 8858,
      "Welcome": 8859,
      "##umin": 8860,
      "##eps": 8861,
      "wrest": 8862,
      "extinct": 8863,
      "grat": 8864,
      "economists": 8865,
      "invested": 8866,
      "illusion": 8867,
      "diagram": 8868,
      "announce": 8869,
      "measurements": 8870,
      "counsel": 8871,
      "sustainability": 8872,
      "ignored": 8873,
      "Mexican": 8874,
      "woods": 8875,
      "Coast": 8876,
      "clubs": 8877,
      "Prize": 8878,
      "champagne": 8879,
      "utter": 8880,
      "renewable": 8881,
      "preparing": 8882,
      "perceived": 8883,
      "barrier": 8884,
      "Jonathan": 8885,
      "furniture": 8886,
      "chaos": 8887,
      "Ebola": 8888,
      "Mongol": 8889,
      "52": 8890,
      "Cat": 8891,
      "Camer": 8892,
      "Hill": 8893,
      "Night": 8894,
      "Pap": 8895,
      "bureau": 8896,
      "du": 8897,
      "wages": 8898,
      "##coming": 8899,
      "shore": 8900,
      "alright": 8901,
      "##obi": 8902,
      "happier": 8903,
      "humanitarian": 8904,
      "depos": 8905,
      "stopping": 8906,
      "friendship": 8907,
      "absence": 8908,
      "1979": 8909,
      "targeted": 8910,
      "revolutionary": 8911,
      "##uddy": 8912,
      "golden": 8913,
      "presidential": 8914,
      "Marty": 8915,
      "channels": 8916,
      "ecosystems": 8917,
      "Treaty": 8918,
      "Shangh": 8919,
      "diabetes": 8920,
      "Jup": 8921,
      "MS": 8922,
      "Math": 8923,
      "Ram": 8924,
      "Tal": 8925,
      "pir": 8926,
      "##ras": 8927,
      "##oil": 8928,
      "##grad": 8929,
      "##lete": 8930,
      "allies": 8931,
      "aged": 8932,
      "amm": 8933,
      "monkeys": 8934,
      "##ixon": 8935,
      "##aze": 8936,
      "preserve": 8937,
      "behalf": 8938,
      "sixth": 8939,
      "tempor": 8940,
      "1960": 8941,
      "females": 8942,
      "photography": 8943,
      "aston": 8944,
      "fraction": 8945,
      "deny": 8946,
      "attracted": 8947,
      "Lucy": 8948,
      "habitat": 8949,
      "recommended": 8950,
      "decrease": 8951,
      "comparison": 8952,
      "flexible": 8953,
      "Sarah": 8954,
      "##heimer": 8955,
      "AS": 8956,
      "IBM": 8957,
      "Pers": 8958,
      "Pole": 8959,
      "Saud": 8960,
      "cord": 8961,
      "nit": 8962,
      "vice": 8963,
      "##ris": 8964,
      "##esters": 8965,
      "toys": 8966,
      "##ura": 8967,
      "##amin": 8968,
      "chat": 8969,
      "chips": 8970,
      "yourselves": 8971,
      "peer": 8972,
      "expon": 8973,
      "imprison": 8974,
      "amp": 8975,
      "mayor": 8976,
      "persist": 8977,
      "centre": 8978,
      "retail": 8979,
      "cultiv": 8980,
      "missions": 8981,
      "Conn": 8982,
      "embedded": 8983,
      "interacting": 8984,
      "witnesses": 8985,
      "Neither": 8986,
      "Winter": 8987,
      "54": 8988,
      "CS": 8989,
      "Ele": 8990,
      "Sand": 8991,
      "Sud": 8992,
      "Tre": 8993,
      "##uum": 8994,
      "##power": 8995,
      "##11": 8996,
      "##itated": 8997,
      "intim": 8998,
      "kindness": 8999,
      "serves": 9000,
      "fung": 9001,
      "deadly": 9002,
      "viewed": 9003,
      "limb": 9004,
      "1969": 9005,
      "consume": 9006,
      "fascinated": 9007,
      "analyze": 9008,
      "partnership": 9009,
      "exerc": 9010,
      "graduated": 9011,
      "limitations": 9012,
      "racism": 9013,
      "inevitable": 9014,
      "ceremony": 9015,
      "\")": 9016,
      "Mat": 9017,
      "Rh": 9018,
      "Rom": 9019,
      "Sel": 9020,
      "TH": 9021,
      "##iences": 9022,
      "##hes": 9023,
      "##erk": 9024,
      "ink": 9025,
      "##utical": 9026,
      "item": 9027,
      "neural": 9028,
      "##mental": 9029,
      "##iven": 9030,
      "undert": 9031,
      "flows": 9032,
      "branches": 9033,
      "Answ": 9034,
      "insist": 9035,
      "communist": 9036,
      "metric": 9037,
      "passenger": 9038,
      "advis": 9039,
      "freely": 9040,
      "occas": 9041,
      "structural": 9042,
      "propose": 9043,
      "sweat": 9044,
      "textbook": 9045,
      "Nevertheless": 9046,
      "Seven": 9047,
      "gathering": 9048,
      "##ylum": 9049,
      "##standing": 9050,
      "autonomous": 9051,
      "tackle": 9052,
      "elderly": 9053,
      "Gulf": 9054,
      "Hand": 9055,
      "Val": 9056,
      "bold": 9057,
      "ease": 9058,
      "wider": 9059,
      "wives": 9060,
      "##icop": 9061,
      "##alities": 9062,
      "revers": 9063,
      "shots": 9064,
      "prosp": 9065,
      "ampl": 9066,
      "commod": 9067,
      "##pless": 9068,
      "regulation": 9069,
      "Alban": 9070,
      "smallest": 9071,
      "artistic": 9072,
      "retired": 9073,
      "##iversary": 9074,
      "boyfriend": 9075,
      "Joey": 9076,
      "cheese": 9077,
      "physi": 9078,
      "Death": 9079,
      "breakthrough": 9080,
      "magical": 9081,
      "Among": 9082,
      "inspiring": 9083,
      "miserable": 9084,
      "demonstration": 9085,
      "symp": 9086,
      "knocked": 9087,
      "scenes": 9088,
      "County": 9089,
      "Having": 9090,
      "axis": 9091,
      "acknowled": 9092,
      "horizon": 9093,
      "contemporary": 9094,
      "College": 9095,
      "FATHER": 9096,
      "Age": 9097,
      "CP": 9098,
      "Ky": 9099,
      "wre": 9100,
      "##ID": 9101,
      "##vin": 9102,
      "##oning": 9103,
      "##oples": 9104,
      "ups": 9105,
      "spite": 9106,
      "##aceutical": 9107,
      "interse": 9108,
      "##ensus": 9109,
      "##ictions": 9110,
      "##ighters": 9111,
      "mighty": 9112,
      "reporting": 9113,
      "agenda": 9114,
      "robust": 9115,
      "treas": 9116,
      "historic": 9117,
      "suggesting": 9118,
      "affordable": 9119,
      "assistant": 9120,
      "regarded": 9121,
      "entrepreneur": 9122,
      "pursue": 9123,
      "ceiling": 9124,
      "barriers": 9125,
      "episode": 9126,
      "Malaysia": 9127,
      "proportion": 9128,
      "nutrients": 9129,
      "53": 9130,
      "Dist": 9131,
      "Fair": 9132,
      "bes": 9133,
      "cub": 9134,
      "dirt": 9135,
      "gor": 9136,
      "loop": 9137,
      "makers": 9138,
      "##iate": 9139,
      "##II": 9140,
      "thirty": 9141,
      "##oln": 9142,
      "##oli": 9143,
      "compounds": 9144,
      "clip": 9145,
      "##acular": 9146,
      "musicians": 9147,
      "lowest": 9148,
      "1965": 9149,
      "religions": 9150,
      "inspire": 9151,
      "parks": 9152,
      "robotic": 9153,
      "flee": 9154,
      "Finland": 9155,
      "commander": 9156,
      "executed": 9157,
      "optimistic": 9158,
      "prayer": 9159,
      "corporations": 9160,
      "cabin": 9161,
      "ruled": 9162,
      "deployed": 9163,
      "ISO": 9164,
      "intuitive": 9165,
      "Olympic": 9166,
      "adventure": 9167,
      "battles": 9168,
      "overwhelming": 9169,
      "prosperity": 9170,
      "##burgh": 9171,
      "Leban": 9172,
      "Saudi": 9173,
      "900": 9174,
      "Abs": 9175,
      "Hor": 9176,
      "Mot": 9177,
      "Rail": 9178,
      "Rather": 9179,
      "cro": 9180,
      "municip": 9181,
      "nonsense": 9182,
      "pengu": 9183,
      "##opy": 9184,
      "aboard": 9185,
      "convey": 9186,
      "##elines": 9187,
      "emerge": 9188,
      "index": 9189,
      "monum": 9190,
      "slip": 9191,
      "organizing": 9192,
      "distract": 9193,
      "milit": 9194,
      "Program": 9195,
      "##cription": 9196,
[...]
